const unsigned char model_no_quant_tflite[] = {
  0x1c, 0x00, 0x00, 0x00, 0x54, 0x46, 0x4c, 0x33, 0x14, 0x00, 0x20, 0x00, 
  0x1c, 0x00, 0x18, 0x00, 0x14, 0x00, 0x10, 0x00, 0x0c, 0x00, 0x00, 0x00, 
  0x08, 0x00, 0x04, 0x00, 0x14, 0x00, 0x00, 0x00, 0x1c, 0x00, 0x00, 0x00, 
  0x98, 0x00, 0x00, 0x00, 0xf0, 0x00, 0x00, 0x00, 0x14, 0x07, 0x00, 0x00, 
  0x24, 0x07, 0x00, 0x00, 0xfc, 0x0b, 0x00, 0x00, 0x03, 0x00, 0x00, 0x00, 
  0x01, 0x00, 0x00, 0x00, 0x10, 0x00, 0x00, 0x00, 0x00, 0x00, 0x0a, 0x00, 
  0x10, 0x00, 0x0c, 0x00, 0x08, 0x00, 0x04, 0x00, 0x0a, 0x00, 0x00, 0x00, 
  0x0c, 0x00, 0x00, 0x00, 0x1c, 0x00, 0x00, 0x00, 0x3c, 0x00, 0x00, 0x00, 
  0x0f, 0x00, 0x00, 0x00, 0x73, 0x65, 0x72, 0x76, 0x69, 0x6e, 0x67, 0x5f, 
  0x64, 0x65, 0x66, 0x61, 0x75, 0x6c, 0x74, 0x00, 0x01, 0x00, 0x00, 0x00, 
  0x04, 0x00, 0x00, 0x00, 0x90, 0xff, 0xff, 0xff, 0x09, 0x00, 0x00, 0x00, 
  0x04, 0x00, 0x00, 0x00, 0x08, 0x00, 0x00, 0x00, 0x6f, 0x75, 0x74, 0x70, 
  0x75, 0x74, 0x5f, 0x30, 0x00, 0x00, 0x00, 0x00, 0x01, 0x00, 0x00, 0x00, 
  0x04, 0x00, 0x00, 0x00, 0xba, 0xf9, 0xff, 0xff, 0x04, 0x00, 0x00, 0x00, 
  0x0e, 0x00, 0x00, 0x00, 0x6b, 0x65, 0x72, 0x61, 0x73, 0x5f, 0x74, 0x65, 
  0x6e, 0x73, 0x6f, 0x72, 0x5f, 0x33, 0x00, 0x00, 0x02, 0x00, 0x00, 0x00, 
  0x34, 0x00, 0x00, 0x00, 0x04, 0x00, 0x00, 0x00, 0xdc, 0xff, 0xff, 0xff, 
  0x0c, 0x00, 0x00, 0x00, 0x04, 0x00, 0x00, 0x00, 0x13, 0x00, 0x00, 0x00, 
  0x43, 0x4f, 0x4e, 0x56, 0x45, 0x52, 0x53, 0x49, 0x4f, 0x4e, 0x5f, 0x4d, 
  0x45, 0x54, 0x41, 0x44, 0x41, 0x54, 0x41, 0x00, 0x08, 0x00, 0x0c, 0x00, 
  0x08, 0x00, 0x04, 0x00, 0x08, 0x00, 0x00, 0x00, 0x0b, 0x00, 0x00, 0x00, 
  0x04, 0x00, 0x00, 0x00, 0x13, 0x00, 0x00, 0x00, 0x6d, 0x69, 0x6e, 0x5f, 
  0x72, 0x75, 0x6e, 0x74, 0x69, 0x6d, 0x65, 0x5f, 0x76, 0x65, 0x72, 0x73, 
  0x69, 0x6f, 0x6e, 0x00, 0x0d, 0x00, 0x00, 0x00, 0x20, 0x06, 0x00, 0x00, 
  0x18, 0x06, 0x00, 0x00, 0xc8, 0x05, 0x00, 0x00, 0xb0, 0x01, 0x00, 0x00, 
  0x9c, 0x01, 0x00, 0x00, 0x4c, 0x01, 0x00, 0x00, 0xfc, 0x00, 0x00, 0x00, 
  0xac, 0x00, 0x00, 0x00, 0xa4, 0x00, 0x00, 0x00, 0x9c, 0x00, 0x00, 0x00, 
  0x94, 0x00, 0x00, 0x00, 0x74, 0x00, 0x00, 0x00, 0x04, 0x00, 0x00, 0x00, 
  0x6a, 0xfa, 0xff, 0xff, 0x04, 0x00, 0x00, 0x00, 0x60, 0x00, 0x00, 0x00, 
  0x10, 0x00, 0x00, 0x00, 0x00, 0x00, 0x00, 0x00, 0x08, 0x00, 0x0e, 0x00, 
  0x08, 0x00, 0x04, 0x00, 0x08, 0x00, 0x00, 0x00, 0x10, 0x00, 0x00, 0x00, 
  0x24, 0x00, 0x00, 0x00, 0x00, 0x00, 0x06, 0x00, 0x08, 0x00, 0x04, 0x00, 
  0x06, 0x00, 0x00, 0x00, 0x04, 0x00, 0x00, 0x00, 0x00, 0x00, 0x00, 0x00, 
  0x0c, 0x00, 0x18, 0x00, 0x14, 0x00, 0x10, 0x00, 0x0c, 0x00, 0x04, 0x00, 
  0x0c, 0x00, 0x00, 0x00, 0x81, 0x33, 0x76, 0xf5, 0xe6, 0x86, 0x10, 0x3d, 
  0x02, 0x00, 0x00, 0x00, 0x02, 0x00, 0x00, 0x00, 0x04, 0x00, 0x00, 0x00, 
  0x06, 0x00, 0x00, 0x00, 0x32, 0x2e, 0x31, 0x37, 0x2e, 0x30, 0x00, 0x00, 
  0xd6, 0xfa, 0xff, 0xff, 0x04, 0x00, 0x00, 0x00, 0x10, 0x00, 0x00, 0x00, 
  0x31, 0x2e, 0x35, 0x2e, 0x30, 0x00, 0x00, 0x00, 0x00, 0x00, 0x00, 0x00, 
  0x00, 0x00, 0x00, 0x00, 0xe4, 0xf5, 0xff, 0xff, 0xe8, 0xf5, 0xff, 0xff, 
  0xec, 0xf5, 0xff, 0xff, 0xfe, 0xfa, 0xff, 0xff, 0x04, 0x00, 0x00, 0x00, 
  0x40, 0x00, 0x00, 0x00, 0x81, 0x0e, 0xce, 0x3e, 0xae, 0x2e, 0xca, 0x3d, 
  0x59, 0xe5, 0xe9, 0x3c, 0x8a, 0x2d, 0xec, 0x3d, 0x7e, 0x75, 0x98, 0x3e, 
  0xea, 0x9b, 0x6d, 0xbe, 0x4f, 0x64, 0x95, 0x3d, 0xdd, 0x09, 0x19, 0x3e, 
  0x85, 0x44, 0xe9, 0x3e, 0x2a, 0xc2, 0xa2, 0x3e, 0x5b, 0x5c, 0x29, 0x3d, 
  0x6e, 0x76, 0x2c, 0xbe, 0x9d, 0x5f, 0xfa, 0x3d, 0x85, 0x90, 0xdd, 0xbb, 
  0x32, 0x9d, 0x4c, 0xbe, 0x02, 0x8b, 0x60, 0xbe, 0x4a, 0xfb, 0xff, 0xff, 
  0x04, 0x00, 0x00, 0x00, 0x40, 0x00, 0x00, 0x00, 0x8f, 0x7c, 0x11, 0xbe, 
  0xbb, 0xd4, 0xfd, 0xbd, 0x67, 0x98, 0x28, 0x3e, 0x4b, 0xd7, 0x18, 0x3e, 
  0x90, 0x6b, 0xae, 0x3d, 0x00, 0x00, 0x00, 0x00, 0xf8, 0xea, 0x50, 0x3e, 
  0x75, 0x45, 0x2f, 0x3e, 0x89, 0x8c, 0xa4, 0x3b, 0x82, 0x6c, 0x46, 0xbe, 
  0xfb, 0x4e, 0x0a, 0x3e, 0x00, 0x00, 0x00, 0x00, 0xc4, 0x0a, 0x1d, 0xbe, 
  0xb2, 0x10, 0x43, 0xbc, 0x00, 0x00, 0x00, 0x00, 0x00, 0x00, 0x00, 0x00, 
  0x96, 0xfb, 0xff, 0xff, 0x04, 0x00, 0x00, 0x00, 0x40, 0x00, 0x00, 0x00, 
  0x93, 0x47, 0x14, 0xbe, 0xa8, 0x3d, 0x3a, 0xbe, 0x00, 0x00, 0x00, 0x00, 
  0x3a, 0x1a, 0x16, 0x3e, 0xc6, 0x84, 0x0f, 0x3e, 0x00, 0x00, 0x00, 0x00, 
  0x9d, 0x94, 0x0c, 0x3e, 0x19, 0xfa, 0xf2, 0xbd, 0x1b, 0x85, 0x2f, 0xbe, 
  0x02, 0xb3, 0x0e, 0xbe, 0x00, 0x00, 0x00, 0x00, 0x02, 0x81, 0x16, 0xbc, 
  0x07, 0x24, 0x35, 0xbe, 0x39, 0xa0, 0x12, 0x3e, 0xb7, 0xd3, 0xfa, 0x3e, 
  0x38, 0xb0, 0x9f, 0x3d, 0xe2, 0xfb, 0xff, 0xff, 0x04, 0x00, 0x00, 0x00, 
  0x04, 0x00, 0x00, 0x00, 0x1e, 0xea, 0x0c, 0x3e, 0xf2, 0xfb, 0xff, 0xff, 
  0x04, 0x00, 0x00, 0x00, 0x00, 0x04, 0x00, 0x00, 0x1f, 0xfb, 0xda, 0x3e, 
  0x43, 0xaa, 0x0a, 0x3f, 0xab, 0x00, 0x99, 0x3d, 0x32, 0xd2, 0xa8, 0x3e, 
  0x22, 0x63, 0x55, 0x3e, 0xdd, 0xb7, 0xce, 0x3e, 0x55, 0x73, 0x8f, 0x3e, 
  0x54, 0x21, 0x7d, 0x3e, 0x03, 0xc6, 0xd9, 0x3d, 0x1d, 0x78, 0xe7, 0x3d, 
  0xbc, 0xd2, 0x65, 0x3d, 0x28, 0xac, 0x69, 0x3d, 0x6d, 0x9c, 0xe9, 0x3e, 
  0xb0, 0xc7, 0x10, 0x3d, 0x46, 0x5e, 0x1e, 0xbe, 0xd0, 0x5c, 0x92, 0xbd, 
  0xe4, 0xe8, 0x9b, 0x3e, 0x84, 0xe4, 0xb0, 0x3e, 0x12, 0x6e, 0x56, 0xbe, 
  0x67, 0x18, 0xc1, 0xbe, 0xf9, 0x04, 0x81, 0x3e, 0xcc, 0x2d, 0x88, 0xbd, 
  0x8f, 0xb9, 0x5a, 0xbd, 0x3e, 0x85, 0x3e, 0xbd, 0x4b, 0x8b, 0xd0, 0x3e, 
  0x34, 0x97, 0xbc, 0x3e, 0x2f, 0x33, 0xe9, 0xbd, 0x9d, 0x7f, 0xcf, 0x3e, 
  0x3b, 0xf7, 0xd6, 0xbd, 0xb3, 0x44, 0xc6, 0x3e, 0xd2, 0xe6, 0x36, 0x3e, 
  0x78, 0x04, 0x57, 0xbd, 0xca, 0x18, 0x2d, 0xbe, 0xc7, 0xb1, 0xd7, 0x3e, 
  0x30, 0x01, 0x2d, 0xbe, 0x62, 0xf4, 0x56, 0x3e, 0xfb, 0xaa, 0x8b, 0x3e, 
  0x69, 0xed, 0xc5, 0x3e, 0xc0, 0x04, 0x9b, 0xbc, 0xc0, 0x85, 0x1c, 0xbe, 
  0xee, 0x33, 0x34, 0xbe, 0x4c, 0x78, 0x89, 0xbe, 0x26, 0xa5, 0xaf, 0xbe, 
  0x9c, 0xf0, 0x11, 0xbe, 0x89, 0xde, 0xa5, 0x3e, 0xe7, 0x10, 0x45, 0xbe, 
  0x88, 0x37, 0xd1, 0xbe, 0x96, 0x9b, 0xab, 0xbe, 0xbc, 0x73, 0xe5, 0xbe, 
  0xbc, 0x34, 0x4a, 0xbd, 0xa7, 0x5a, 0xad, 0x3d, 0x60, 0x18, 0xfc, 0x3d, 
  0xee, 0xc5, 0xab, 0x3e, 0x70, 0xda, 0x3d, 0x3d, 0x4f, 0x71, 0xaa, 0x3e, 
  0x8c, 0x15, 0xb5, 0x3e, 0x71, 0x03, 0xd5, 0x3d, 0xea, 0x56, 0x0f, 0xbe, 
  0x60, 0x08, 0x3b, 0x3e, 0x13, 0xcd, 0x79, 0xbe, 0x8e, 0x3f, 0xe4, 0xbd, 
  0x62, 0xda, 0x4d, 0xbe, 0x60, 0x2c, 0x66, 0xbd, 0x2e, 0x6f, 0x09, 0x3e, 
  0x76, 0x36, 0x2d, 0x3e, 0xc4, 0xc7, 0x7d, 0xbe, 0x02, 0x65, 0x50, 0x3e, 
  0x2d, 0xcd, 0xac, 0x3e, 0x5d, 0x8c, 0x8c, 0xbe, 0x0e, 0xcc, 0x91, 0xbe, 
  0x8d, 0xa9, 0xda, 0x3e, 0x28, 0x1e, 0x87, 0x3e, 0x44, 0xec, 0xd0, 0x3e, 
  0x63, 0x65, 0x43, 0xbe, 0xc5, 0xc7, 0x27, 0xbd, 0x08, 0xe8, 0x30, 0x3d, 
  0x26, 0x93, 0x01, 0xbf, 0xcf, 0xca, 0xc4, 0xbe, 0x46, 0xb8, 0x57, 0x3e, 
  0x30, 0x23, 0x28, 0x3d, 0x70, 0x2b, 0xc7, 0xbc, 0xf6, 0xac, 0x8c, 0xbe, 
  0x00, 0xdf, 0xd7, 0xbe, 0x3c, 0xee, 0xf7, 0x3d, 0x52, 0x90, 0x7f, 0xbe, 
  0x5c, 0xe6, 0x47, 0xbe, 0x75, 0xc4, 0x92, 0x3e, 0x80, 0xff, 0x3d, 0xbc, 
  0x9a, 0x39, 0x38, 0xbe, 0x93, 0xa0, 0x9b, 0x3e, 0x48, 0xeb, 0x12, 0x3d, 
  0x60, 0x99, 0x54, 0x3c, 0xff, 0x90, 0xd6, 0x3e, 0x20, 0x04, 0x44, 0x3c, 
  0x5a, 0xad, 0x21, 0x3e, 0x16, 0x50, 0xbc, 0xbe, 0xf2, 0x13, 0x35, 0x3e, 
  0x04, 0x67, 0x56, 0xbd, 0x8b, 0xa3, 0x89, 0x3e, 0x59, 0x37, 0x9a, 0x3d, 
  0x59, 0xaf, 0xd4, 0x3e, 0x98, 0x1d, 0xa6, 0xbe, 0xd4, 0x07, 0x09, 0x3e, 
  0x28, 0x58, 0x3d, 0xbe, 0xd7, 0x01, 0xbc, 0x3e, 0xcf, 0x02, 0x9f, 0x3e, 
  0x4f, 0x55, 0x2b, 0x3d, 0x4b, 0xbf, 0xaa, 0xbe, 0xb1, 0x55, 0xa0, 0xbe, 
  0x35, 0x6f, 0x92, 0x3d, 0x63, 0x81, 0x6b, 0xbe, 0x60, 0x44, 0x9b, 0xbc, 
  0xbd, 0xdb, 0xc8, 0x3e, 0x8f, 0xfa, 0xe9, 0x3e, 0x16, 0x2e, 0x7c, 0xbe, 
  0x65, 0x42, 0xc1, 0x3d, 0x99, 0xfb, 0x15, 0xbe, 0xfb, 0x82, 0xd0, 0x3e, 
  0xa2, 0xb0, 0x1d, 0x3e, 0x06, 0xb6, 0x08, 0x3e, 0x73, 0xaf, 0xbb, 0x3d, 
  0xb6, 0xbe, 0xa9, 0xbc, 0x90, 0xdf, 0xc3, 0xbe, 0x53, 0x2c, 0x6b, 0xbe, 
  0x45, 0xbf, 0xe7, 0x3e, 0xab, 0x7d, 0xa6, 0x3e, 0x85, 0xcb, 0x80, 0x3e, 
  0x86, 0x14, 0x02, 0x3e, 0x5c, 0xa8, 0x20, 0x3c, 0x8b, 0x89, 0x20, 0xbe, 
  0x31, 0xda, 0x08, 0x3e, 0x91, 0x3d, 0x4f, 0x3e, 0xa4, 0xca, 0x16, 0xbe, 
  0xe9, 0x93, 0x49, 0xbe, 0xd8, 0x83, 0x0f, 0x3e, 0x9d, 0x5e, 0xe0, 0xbd, 
  0xe0, 0x96, 0x85, 0x3e, 0x62, 0x8e, 0xfc, 0x3d, 0xf9, 0xef, 0xc7, 0xbd, 
  0x44, 0xb8, 0x9a, 0xbd, 0xa9, 0x47, 0x0c, 0x3d, 0xfe, 0x43, 0xb3, 0xbe, 
  0xd0, 0xf9, 0x80, 0x3d, 0x06, 0x7a, 0xba, 0xbe, 0x61, 0x90, 0xe3, 0x3e, 
  0x88, 0x5e, 0x16, 0x3f, 0x85, 0x33, 0x45, 0xbd, 0x4f, 0xf5, 0x8f, 0xbe, 
  0xe2, 0x7b, 0x95, 0xbe, 0x00, 0x0b, 0x85, 0xbb, 0xb4, 0x3a, 0xea, 0xbd, 
  0x98, 0x1e, 0x7a, 0x3e, 0xf5, 0x3b, 0xc5, 0x3d, 0x0a, 0x03, 0x4d, 0x3e, 
  0x71, 0x78, 0xa5, 0x3e, 0xf8, 0xd4, 0x51, 0xbd, 0xdd, 0x2a, 0xbb, 0xbd, 
  0xb5, 0x6c, 0x7a, 0x3c, 0x72, 0x4e, 0x4b, 0x3e, 0xfe, 0xd3, 0x0f, 0x3e, 
  0x6c, 0xf1, 0x92, 0xbe, 0x02, 0x07, 0x54, 0x3e, 0x20, 0xd7, 0x8e, 0xbe, 
  0x74, 0xb1, 0xb7, 0xbd, 0x8a, 0x0b, 0x42, 0x3e, 0x58, 0x9e, 0x26, 0x3d, 
  0x50, 0xe3, 0xdd, 0xbd, 0x17, 0x28, 0xa8, 0x3e, 0xfa, 0x0c, 0x14, 0xbe, 
  0x08, 0xca, 0x77, 0xbe, 0x4c, 0xfb, 0xb2, 0xbd, 0xf8, 0xfc, 0x21, 0x3d, 
  0x30, 0xdf, 0xe1, 0x3c, 0xca, 0xbb, 0x51, 0xbe, 0x5e, 0x35, 0x8c, 0xbe, 
  0x90, 0x6a, 0xde, 0x3c, 0x57, 0x91, 0x82, 0xbe, 0x66, 0xd0, 0x3f, 0x3e, 
  0x62, 0x6c, 0xab, 0xbe, 0x77, 0xbd, 0xc6, 0xbe, 0xef, 0x4e, 0xcc, 0x3e, 
  0x18, 0x2a, 0xaf, 0xbd, 0x71, 0x3d, 0x28, 0x3e, 0xbe, 0x95, 0x33, 0xbe, 
  0xa4, 0x42, 0x84, 0x3e, 0xf7, 0xb3, 0x19, 0xbe, 0xfd, 0x84, 0x49, 0xbe, 
  0x75, 0xde, 0x89, 0x3e, 0x8e, 0xb0, 0x4a, 0xbe, 0x25, 0x4d, 0x0d, 0x3e, 
  0x2c, 0x6e, 0x8b, 0x3d, 0x62, 0x34, 0xda, 0xbe, 0x35, 0x9d, 0xc9, 0x3e, 
  0xe5, 0x02, 0xf8, 0x3e, 0x96, 0x10, 0xbd, 0xbe, 0xa1, 0xb9, 0xc6, 0x3e, 
  0x91, 0x1b, 0xa3, 0xbc, 0x36, 0x34, 0x02, 0x3e, 0xcd, 0xeb, 0x9d, 0xbe, 
  0xf3, 0x21, 0xeb, 0xbd, 0xe1, 0x4c, 0xa7, 0x3d, 0x89, 0x52, 0xa6, 0x3e, 
  0x6c, 0x87, 0x73, 0x3e, 0x8b, 0xf5, 0xad, 0x3e, 0xba, 0xfe, 0x46, 0x3e, 
  0x38, 0xf8, 0x0a, 0xbd, 0xfa, 0xc6, 0x5f, 0x3e, 0x31, 0x44, 0xa2, 0x3e, 
  0x60, 0x6d, 0x4c, 0xbd, 0x39, 0x18, 0x1d, 0x3e, 0x73, 0x49, 0x7e, 0x3e, 
  0x71, 0xba, 0xaa, 0xbe, 0x16, 0x28, 0x83, 0x3e, 0xb9, 0x7d, 0xa9, 0x3e, 
  0x7a, 0x5d, 0xa1, 0xbe, 0x79, 0x3b, 0xc5, 0x3d, 0xc5, 0xe2, 0xb4, 0x3e, 
  0x5e, 0xed, 0xe2, 0xbe, 0x6f, 0x24, 0x68, 0xbe, 0x98, 0x3f, 0x6a, 0x3d, 
  0x5c, 0xad, 0x81, 0x3e, 0xf7, 0x4f, 0x51, 0xbe, 0xa8, 0x70, 0xcb, 0xbd, 
  0x9a, 0xd1, 0x13, 0x3e, 0x42, 0x54, 0x41, 0xbf, 0x78, 0xda, 0xf9, 0xbd, 
  0x6b, 0x86, 0xe9, 0x3e, 0xd3, 0x61, 0x99, 0x3e, 0x1b, 0x13, 0x2e, 0xbf, 
  0x19, 0x7e, 0xba, 0xbe, 0xa3, 0x17, 0xb5, 0x3e, 0xdb, 0x80, 0xf4, 0x3d, 
  0x40, 0x30, 0x41, 0xbf, 0x7e, 0xe6, 0x80, 0xbe, 0xff, 0x20, 0xc0, 0x3e, 
  0x80, 0x34, 0x5d, 0xbc, 0xde, 0xd8, 0x04, 0x3e, 0xa8, 0x03, 0xcc, 0xbd, 
  0x9c, 0x18, 0x95, 0x3d, 0x22, 0x62, 0xb3, 0xbe, 0xba, 0xa4, 0x88, 0xbe, 
  0x0f, 0x7c, 0xcf, 0x3e, 0x26, 0x88, 0x41, 0xbe, 0xe5, 0x2b, 0xa0, 0x3e, 
  0xdc, 0x79, 0x8a, 0xbe, 0xce, 0x7d, 0x38, 0xbe, 0xaf, 0x52, 0x4e, 0xbd, 
  0xb9, 0xac, 0xdc, 0x3d, 0xa6, 0xc0, 0x40, 0xbf, 0x38, 0xac, 0x4f, 0xbd, 
  0x25, 0x17, 0x34, 0x3e, 0xe0, 0xda, 0x8a, 0xbd, 0x29, 0x4a, 0xce, 0xbe, 
  0x60, 0x6a, 0x93, 0xbc, 0x03, 0x51, 0x91, 0x3e, 0x3d, 0x68, 0xc1, 0x3e, 
  0x00, 0x00, 0x06, 0x00, 0x08, 0x00, 0x04, 0x00, 0x06, 0x00, 0x00, 0x00, 
  0x04, 0x00, 0x00, 0x00, 0x40, 0x00, 0x00, 0x00, 0xde, 0x1e, 0xef, 0xbd, 
  0x78, 0x9c, 0xfc, 0xbe, 0xd5, 0x28, 0x07, 0xbf, 0x97, 0x9f, 0x07, 0x3f, 
  0xff, 0x74, 0x11, 0x3f, 0x68, 0x44, 0x11, 0x3f, 0x3f, 0x96, 0x9e, 0x3e, 
  0x1a, 0x3d, 0x11, 0xbf, 0xc7, 0x34, 0xa2, 0xbe, 0x8f, 0x0e, 0x22, 0xbe, 
  0x42, 0x8f, 0x01, 0xbf, 0x21, 0xbb, 0x0d, 0xbf, 0x7c, 0x9e, 0xb1, 0xbe, 
  0xb1, 0x99, 0xa4, 0x3e, 0xe6, 0x19, 0x40, 0xbf, 0xb1, 0x1a, 0x7a, 0xbf, 
  0x44, 0xfb, 0xff, 0xff, 0x48, 0xfb, 0xff, 0xff, 0x0f, 0x00, 0x00, 0x00, 
  0x4d, 0x4c, 0x49, 0x52, 0x20, 0x43, 0x6f, 0x6e, 0x76, 0x65, 0x72, 0x74, 
  0x65, 0x64, 0x2e, 0x00, 0x01, 0x00, 0x00, 0x00, 0x14, 0x00, 0x00, 0x00, 
  0x00, 0x00, 0x0e, 0x00, 0x18, 0x00, 0x14, 0x00, 0x10, 0x00, 0x0c, 0x00, 
  0x08, 0x00, 0x04, 0x00, 0x0e, 0x00, 0x00, 0x00, 0x14, 0x00, 0x00, 0x00, 
  0x1c, 0x00, 0x00, 0x00, 0xd8, 0x00, 0x00, 0x00, 0xdc, 0x00, 0x00, 0x00, 
  0xe0, 0x00, 0x00, 0x00, 0x04, 0x00, 0x00, 0x00, 0x6d, 0x61, 0x69, 0x6e, 
  0x00, 0x00, 0x00, 0x00, 0x03, 0x00, 0x00, 0x00, 0x80, 0x00, 0x00, 0x00, 
  0x38, 0x00, 0x00, 0x00, 0x04, 0x00, 0x00, 0x00, 0x9a, 0xff, 0xff, 0xff, 
  0x10, 0x00, 0x00, 0x00, 0x00, 0x00, 0x00, 0x08, 0x0c, 0x00, 0x00, 0x00, 
  0x10, 0x00, 0x00, 0x00, 0xc0, 0xfb, 0xff, 0xff, 0x01, 0x00, 0x00, 0x00, 
  0x09, 0x00, 0x00, 0x00, 0x03, 0x00, 0x00, 0x00, 0x08, 0x00, 0x00, 0x00, 
  0x01, 0x00, 0x00, 0x00, 0x03, 0x00, 0x00, 0x00, 0xca, 0xff, 0xff, 0xff, 
  0x10, 0x00, 0x00, 0x00, 0x00, 0x00, 0x00, 0x08, 0x10, 0x00, 0x00, 0x00, 
  0x14, 0x00, 0x00, 0x00, 0xba, 0xff, 0xff, 0xff, 0x00, 0x00, 0x00, 0x01, 
  0x01, 0x00, 0x00, 0x00, 0x08, 0x00, 0x00, 0x00, 0x03, 0x00, 0x00, 0x00, 
  0x07, 0x00, 0x00, 0x00, 0x02, 0x00, 0x00, 0x00, 0x04, 0x00, 0x00, 0x00, 
  0x00, 0x00, 0x0e, 0x00, 0x16, 0x00, 0x00, 0x00, 0x10, 0x00, 0x0c, 0x00, 
  0x0b, 0x00, 0x04, 0x00, 0x0e, 0x00, 0x00, 0x00, 0x18, 0x00, 0x00, 0x00, 
  0x00, 0x00, 0x00, 0x08, 0x18, 0x00, 0x00, 0x00, 0x1c, 0x00, 0x00, 0x00, 
  0x00, 0x00, 0x06, 0x00, 0x08, 0x00, 0x07, 0x00, 0x06, 0x00, 0x00, 0x00, 
  0x00, 0x00, 0x00, 0x01, 0x01, 0x00, 0x00, 0x00, 0x07, 0x00, 0x00, 0x00, 
  0x03, 0x00, 0x00, 0x00, 0x00, 0x00, 0x00, 0x00, 0x06, 0x00, 0x00, 0x00, 
  0x05, 0x00, 0x00, 0x00, 0x01, 0x00, 0x00, 0x00, 0x09, 0x00, 0x00, 0x00, 
  0x01, 0x00, 0x00, 0x00, 0x00, 0x00, 0x00, 0x00, 0x0a, 0x00, 0x00, 0x00, 
  0x68, 0x03, 0x00, 0x00, 0x10, 0x03, 0x00, 0x00, 0xb8, 0x02, 0x00, 0x00, 
  0x7c, 0x02, 0x00, 0x00, 0x40, 0x02, 0x00, 0x00, 0xe8, 0x01, 0x00, 0x00, 
  0x98, 0x01, 0x00, 0x00, 0xfc, 0x00, 0x00, 0x00, 0x60, 0x00, 0x00, 0x00, 
  0x04, 0x00, 0x00, 0x00, 0xd6, 0xfc, 0xff, 0xff, 0x00, 0x00, 0x00, 0x01, 
  0x14, 0x00, 0x00, 0x00, 0x1c, 0x00, 0x00, 0x00, 0x1c, 0x00, 0x00, 0x00, 
  0x0a, 0x00, 0x00, 0x00, 0x34, 0x00, 0x00, 0x00, 0x02, 0x00, 0x00, 0x00, 
  0xff, 0xff, 0xff, 0xff, 0x01, 0x00, 0x00, 0x00, 0xc0, 0xfc, 0xff, 0xff, 
  0x1b, 0x00, 0x00, 0x00, 0x53, 0x74, 0x61, 0x74, 0x65, 0x66, 0x75, 0x6c, 
  0x50, 0x61, 0x72, 0x74, 0x69, 0x74, 0x69, 0x6f, 0x6e, 0x65, 0x64, 0x43, 
  0x61, 0x6c, 0x6c, 0x5f, 0x31, 0x3a, 0x30, 0x00, 0x02, 0x00, 0x00, 0x00, 
  0x01, 0x00, 0x00, 0x00, 0x01, 0x00, 0x00, 0x00, 0x2e, 0xfd, 0xff, 0xff, 
  0x00, 0x00, 0x00, 0x01, 0x14, 0x00, 0x00, 0x00, 0x1c, 0x00, 0x00, 0x00, 
  0x1c, 0x00, 0x00, 0x00, 0x09, 0x00, 0x00, 0x00, 0x74, 0x00, 0x00, 0x00, 
  0x02, 0x00, 0x00, 0x00, 0xff, 0xff, 0xff, 0xff, 0x10, 0x00, 0x00, 0x00, 
  0x18, 0xfd, 0xff, 0xff, 0x5a, 0x00, 0x00, 0x00, 0x73, 0x65, 0x71, 0x75, 
  0x65, 0x6e, 0x74, 0x69, 0x61, 0x6c, 0x5f, 0x31, 0x5f, 0x31, 0x2f, 0x64, 
  0x65, 0x6e, 0x73, 0x65, 0x5f, 0x33, 0x5f, 0x31, 0x2f, 0x4d, 0x61, 0x74, 
  0x4d, 0x75, 0x6c, 0x3b, 0x73, 0x65, 0x71, 0x75, 0x65, 0x6e, 0x74, 0x69, 
  0x61, 0x6c, 0x5f, 0x31, 0x5f, 0x31, 0x2f, 0x64, 0x65, 0x6e, 0x73, 0x65, 
  0x5f, 0x33, 0x5f, 0x31, 0x2f, 0x52, 0x65, 0x6c, 0x75, 0x3b, 0x73, 0x65, 
  0x71, 0x75, 0x65, 0x6e, 0x74, 0x69, 0x61, 0x6c, 0x5f, 0x31, 0x5f, 0x31, 
  0x2f, 0x64, 0x65, 0x6e, 0x73, 0x65, 0x5f, 0x33, 0x5f, 0x31, 0x2f, 0x41, 
  0x64, 0x64, 0x00, 0x00, 0x02, 0x00, 0x00, 0x00, 0x01, 0x00, 0x00, 0x00, 
  0x10, 0x00, 0x00, 0x00, 0xc6, 0xfd, 0xff, 0xff, 0x00, 0x00, 0x00, 0x01, 
  0x14, 0x00, 0x00, 0x00, 0x1c, 0x00, 0x00, 0x00, 0x1c, 0x00, 0x00, 0x00, 
  0x08, 0x00, 0x00, 0x00, 0x74, 0x00, 0x00, 0x00, 0x02, 0x00, 0x00, 0x00, 
  0xff, 0xff, 0xff, 0xff, 0x10, 0x00, 0x00, 0x00, 0xb0, 0xfd, 0xff, 0xff, 
  0x5a, 0x00, 0x00, 0x00, 0x73, 0x65, 0x71, 0x75, 0x65, 0x6e, 0x74, 0x69, 
  0x61, 0x6c, 0x5f, 0x31, 0x5f, 0x31, 0x2f, 0x64, 0x65, 0x6e, 0x73, 0x65, 
  0x5f, 0x32, 0x5f, 0x31, 0x2f, 0x4d, 0x61, 0x74, 0x4d, 0x75, 0x6c, 0x3b, 
  0x73, 0x65, 0x71, 0x75, 0x65, 0x6e, 0x74, 0x69, 0x61, 0x6c, 0x5f, 0x31, 
  0x5f, 0x31, 0x2f, 0x64, 0x65, 0x6e, 0x73, 0x65, 0x5f, 0x32, 0x5f, 0x31, 
  0x2f, 0x52, 0x65, 0x6c, 0x75, 0x3b, 0x73, 0x65, 0x71, 0x75, 0x65, 0x6e, 
  0x74, 0x69, 0x61, 0x6c, 0x5f, 0x31, 0x5f, 0x31, 0x2f, 0x64, 0x65, 0x6e, 
  0x73, 0x65, 0x5f, 0x32, 0x5f, 0x31, 0x2f, 0x41, 0x64, 0x64, 0x00, 0x00, 
  0x02, 0x00, 0x00, 0x00, 0x01, 0x00, 0x00, 0x00, 0x10, 0x00, 0x00, 0x00, 
  0xb2, 0xfe, 0xff, 0xff, 0x00, 0x00, 0x00, 0x01, 0x10, 0x00, 0x00, 0x00, 
  0x10, 0x00, 0x00, 0x00, 0x07, 0x00, 0x00, 0x00, 0x2c, 0x00, 0x00, 0x00, 
  0x38, 0xfe, 0xff, 0xff, 0x1f, 0x00, 0x00, 0x00, 0x73, 0x65, 0x71, 0x75, 
  0x65, 0x6e, 0x74, 0x69, 0x61, 0x6c, 0x5f, 0x31, 0x5f, 0x31, 0x2f, 0x64, 
  0x65, 0x6e, 0x73, 0x65, 0x5f, 0x32, 0x5f, 0x31, 0x2f, 0x4d, 0x61, 0x74, 
  0x4d, 0x75, 0x6c, 0x00, 0x02, 0x00, 0x00, 0x00, 0x10, 0x00, 0x00, 0x00, 
  0x01, 0x00, 0x00, 0x00, 0xfe, 0xfe, 0xff, 0xff, 0x00, 0x00, 0x00, 0x01, 
  0x10, 0x00, 0x00, 0x00, 0x10, 0x00, 0x00, 0x00, 0x06, 0x00, 0x00, 0x00, 
  0x38, 0x00, 0x00, 0x00, 0x84, 0xfe, 0xff, 0xff, 0x2b, 0x00, 0x00, 0x00, 
  0x73, 0x65, 0x71, 0x75, 0x65, 0x6e, 0x74, 0x69, 0x61, 0x6c, 0x5f, 0x31, 
  0x5f, 0x31, 0x2f, 0x64, 0x65, 0x6e, 0x73, 0x65, 0x5f, 0x32, 0x5f, 0x31, 
  0x2f, 0x41, 0x64, 0x64, 0x2f, 0x52, 0x65, 0x61, 0x64, 0x56, 0x61, 0x72, 
  0x69, 0x61, 0x62, 0x6c, 0x65, 0x4f, 0x70, 0x00, 0x01, 0x00, 0x00, 0x00, 
  0x10, 0x00, 0x00, 0x00, 0x52, 0xff, 0xff, 0xff, 0x00, 0x00, 0x00, 0x01, 
  0x10, 0x00, 0x00, 0x00, 0x10, 0x00, 0x00, 0x00, 0x05, 0x00, 0x00, 0x00, 
  0x1c, 0x00, 0x00, 0x00, 0xd8, 0xfe, 0xff, 0xff, 0x0f, 0x00, 0x00, 0x00, 
  0x61, 0x72, 0x69, 0x74, 0x68, 0x2e, 0x63, 0x6f, 0x6e, 0x73, 0x74, 0x61, 
  0x6e, 0x74, 0x33, 0x00, 0x01, 0x00, 0x00, 0x00, 0x10, 0x00, 0x00, 0x00, 
  0x8a, 0xff, 0xff, 0xff, 0x00, 0x00, 0x00, 0x01, 0x10, 0x00, 0x00, 0x00, 
  0x10, 0x00, 0x00, 0x00, 0x04, 0x00, 0x00, 0x00, 0x1c, 0x00, 0x00, 0x00, 
  0x10, 0xff, 0xff, 0xff, 0x0f, 0x00, 0x00, 0x00, 0x61, 0x72, 0x69, 0x74, 
  0x68, 0x2e, 0x63, 0x6f, 0x6e, 0x73, 0x74, 0x61, 0x6e, 0x74, 0x32, 0x00, 
  0x01, 0x00, 0x00, 0x00, 0x01, 0x00, 0x00, 0x00, 0xc2, 0xff, 0xff, 0xff, 
  0x00, 0x00, 0x00, 0x01, 0x10, 0x00, 0x00, 0x00, 0x10, 0x00, 0x00, 0x00, 
  0x03, 0x00, 0x00, 0x00, 0x1c, 0x00, 0x00, 0x00, 0x48, 0xff, 0xff, 0xff, 
  0x0f, 0x00, 0x00, 0x00, 0x61, 0x72, 0x69, 0x74, 0x68, 0x2e, 0x63, 0x6f, 
  0x6e, 0x73, 0x74, 0x61, 0x6e, 0x74, 0x31, 0x00, 0x02, 0x00, 0x00, 0x00, 
  0x10, 0x00, 0x00, 0x00, 0x10, 0x00, 0x00, 0x00, 0x00, 0x00, 0x16, 0x00, 
  0x18, 0x00, 0x14, 0x00, 0x00, 0x00, 0x10, 0x00, 0x0c, 0x00, 0x08, 0x00, 
  0x00, 0x00, 0x00, 0x00, 0x00, 0x00, 0x07, 0x00, 0x16, 0x00, 0x00, 0x00, 
  0x00, 0x00, 0x00, 0x01, 0x10, 0x00, 0x00, 0x00, 0x10, 0x00, 0x00, 0x00, 
  0x02, 0x00, 0x00, 0x00, 0x1c, 0x00, 0x00, 0x00, 0x9c, 0xff, 0xff, 0xff, 
  0x0e, 0x00, 0x00, 0x00, 0x61, 0x72, 0x69, 0x74, 0x68, 0x2e, 0x63, 0x6f, 
  0x6e, 0x73, 0x74, 0x61, 0x6e, 0x74, 0x00, 0x00, 0x02, 0x00, 0x00, 0x00, 
  0x01, 0x00, 0x00, 0x00, 0x10, 0x00, 0x00, 0x00, 0x00, 0x00, 0x16, 0x00, 
  0x1c, 0x00, 0x18, 0x00, 0x00, 0x00, 0x14, 0x00, 0x10, 0x00, 0x0c, 0x00, 
  0x00, 0x00, 0x00, 0x00, 0x08, 0x00, 0x07, 0x00, 0x16, 0x00, 0x00, 0x00, 
  0x00, 0x00, 0x00, 0x01, 0x14, 0x00, 0x00, 0x00, 0x20, 0x00, 0x00, 0x00, 
  0x20, 0x00, 0x00, 0x00, 0x01, 0x00, 0x00, 0x00, 0x40, 0x00, 0x00, 0x00, 
  0x02, 0x00, 0x00, 0x00, 0xff, 0xff, 0xff, 0xff, 0x01, 0x00, 0x00, 0x00, 
  0x04, 0x00, 0x04, 0x00, 0x04, 0x00, 0x00, 0x00, 0x20, 0x00, 0x00, 0x00, 
  0x73, 0x65, 0x72, 0x76, 0x69, 0x6e, 0x67, 0x5f, 0x64, 0x65, 0x66, 0x61, 
  0x75, 0x6c, 0x74, 0x5f, 0x6b, 0x65, 0x72, 0x61, 0x73, 0x5f, 0x74, 0x65, 
  0x6e, 0x73, 0x6f, 0x72, 0x5f, 0x33, 0x3a, 0x30, 0x00, 0x00, 0x00, 0x00, 
  0x02, 0x00, 0x00, 0x00, 0x01, 0x00, 0x00, 0x00, 0x01, 0x00, 0x00, 0x00, 
  0x01, 0x00, 0x00, 0x00, 0x10, 0x00, 0x00, 0x00, 0x0c, 0x00, 0x0c, 0x00, 
  0x0b, 0x00, 0x00, 0x00, 0x00, 0x00, 0x04, 0x00, 0x0c, 0x00, 0x00, 0x00, 
  0x09, 0x00, 0x00, 0x00, 0x00, 0x00, 0x00, 0x09, 
};
const unsigned int model_no_quant_tflite_len = 3152;
