const unsigned char model_float_tflite[] = {
  0x1c, 0x00, 0x00, 0x00, 0x54, 0x46, 0x4c, 0x33, 0x14, 0x00, 0x20, 0x00, 
  0x1c, 0x00, 0x18, 0x00, 0x14, 0x00, 0x10, 0x00, 0x0c, 0x00, 0x00, 0x00, 
  0x08, 0x00, 0x04, 0x00, 0x14, 0x00, 0x00, 0x00, 0x1c, 0x00, 0x00, 0x00, 
  0x98, 0x00, 0x00, 0x00, 0xf0, 0x00, 0x00, 0x00, 0x14, 0x07, 0x00, 0x00, 
  0x24, 0x07, 0x00, 0x00, 0x08, 0x0c, 0x00, 0x00, 0x03, 0x00, 0x00, 0x00, 
  0x01, 0x00, 0x00, 0x00, 0x10, 0x00, 0x00, 0x00, 0x00, 0x00, 0x0a, 0x00, 
  0x10, 0x00, 0x0c, 0x00, 0x08, 0x00, 0x04, 0x00, 0x0a, 0x00, 0x00, 0x00, 
  0x0c, 0x00, 0x00, 0x00, 0x1c, 0x00, 0x00, 0x00, 0x3c, 0x00, 0x00, 0x00, 
  0x0f, 0x00, 0x00, 0x00, 0x73, 0x65, 0x72, 0x76, 0x69, 0x6e, 0x67, 0x5f, 
  0x64, 0x65, 0x66, 0x61, 0x75, 0x6c, 0x74, 0x00, 0x01, 0x00, 0x00, 0x00, 
  0x04, 0x00, 0x00, 0x00, 0x90, 0xff, 0xff, 0xff, 0x09, 0x00, 0x00, 0x00, 
  0x04, 0x00, 0x00, 0x00, 0x08, 0x00, 0x00, 0x00, 0x6f, 0x75, 0x74, 0x70, 
  0x75, 0x74, 0x5f, 0x30, 0x00, 0x00, 0x00, 0x00, 0x01, 0x00, 0x00, 0x00, 
  0x04, 0x00, 0x00, 0x00, 0xba, 0xf9, 0xff, 0xff, 0x04, 0x00, 0x00, 0x00, 
  0x0e, 0x00, 0x00, 0x00, 0x6b, 0x65, 0x72, 0x61, 0x73, 0x5f, 0x74, 0x65, 
  0x6e, 0x73, 0x6f, 0x72, 0x5f, 0x33, 0x00, 0x00, 0x02, 0x00, 0x00, 0x00, 
  0x34, 0x00, 0x00, 0x00, 0x04, 0x00, 0x00, 0x00, 0xdc, 0xff, 0xff, 0xff, 
  0x0c, 0x00, 0x00, 0x00, 0x04, 0x00, 0x00, 0x00, 0x13, 0x00, 0x00, 0x00, 
  0x43, 0x4f, 0x4e, 0x56, 0x45, 0x52, 0x53, 0x49, 0x4f, 0x4e, 0x5f, 0x4d, 
  0x45, 0x54, 0x41, 0x44, 0x41, 0x54, 0x41, 0x00, 0x08, 0x00, 0x0c, 0x00, 
  0x08, 0x00, 0x04, 0x00, 0x08, 0x00, 0x00, 0x00, 0x0b, 0x00, 0x00, 0x00, 
  0x04, 0x00, 0x00, 0x00, 0x13, 0x00, 0x00, 0x00, 0x6d, 0x69, 0x6e, 0x5f, 
  0x72, 0x75, 0x6e, 0x74, 0x69, 0x6d, 0x65, 0x5f, 0x76, 0x65, 0x72, 0x73, 
  0x69, 0x6f, 0x6e, 0x00, 0x0d, 0x00, 0x00, 0x00, 0x20, 0x06, 0x00, 0x00, 
  0x18, 0x06, 0x00, 0x00, 0xc8, 0x05, 0x00, 0x00, 0xb0, 0x01, 0x00, 0x00, 
  0x9c, 0x01, 0x00, 0x00, 0x4c, 0x01, 0x00, 0x00, 0xfc, 0x00, 0x00, 0x00, 
  0xac, 0x00, 0x00, 0x00, 0xa4, 0x00, 0x00, 0x00, 0x9c, 0x00, 0x00, 0x00, 
  0x94, 0x00, 0x00, 0x00, 0x74, 0x00, 0x00, 0x00, 0x04, 0x00, 0x00, 0x00, 
  0x6a, 0xfa, 0xff, 0xff, 0x04, 0x00, 0x00, 0x00, 0x60, 0x00, 0x00, 0x00, 
  0x10, 0x00, 0x00, 0x00, 0x00, 0x00, 0x00, 0x00, 0x08, 0x00, 0x0e, 0x00, 
  0x08, 0x00, 0x04, 0x00, 0x08, 0x00, 0x00, 0x00, 0x10, 0x00, 0x00, 0x00, 
  0x24, 0x00, 0x00, 0x00, 0x00, 0x00, 0x06, 0x00, 0x08, 0x00, 0x04, 0x00, 
  0x06, 0x00, 0x00, 0x00, 0x04, 0x00, 0x00, 0x00, 0x00, 0x00, 0x00, 0x00, 
  0x0c, 0x00, 0x18, 0x00, 0x14, 0x00, 0x10, 0x00, 0x0c, 0x00, 0x04, 0x00, 
  0x0c, 0x00, 0x00, 0x00, 0x81, 0x83, 0x3c, 0x81, 0xe8, 0x66, 0xe1, 0x77, 
  0x02, 0x00, 0x00, 0x00, 0x02, 0x00, 0x00, 0x00, 0x04, 0x00, 0x00, 0x00, 
  0x06, 0x00, 0x00, 0x00, 0x32, 0x2e, 0x31, 0x37, 0x2e, 0x30, 0x00, 0x00, 
  0xd6, 0xfa, 0xff, 0xff, 0x04, 0x00, 0x00, 0x00, 0x10, 0x00, 0x00, 0x00, 
  0x31, 0x2e, 0x35, 0x2e, 0x30, 0x00, 0x00, 0x00, 0x00, 0x00, 0x00, 0x00, 
  0x00, 0x00, 0x00, 0x00, 0xd8, 0xf5, 0xff, 0xff, 0xdc, 0xf5, 0xff, 0xff, 
  0xe0, 0xf5, 0xff, 0xff, 0xfe, 0xfa, 0xff, 0xff, 0x04, 0x00, 0x00, 0x00, 
  0x40, 0x00, 0x00, 0x00, 0xf2, 0x78, 0x10, 0x3f, 0xfc, 0x6f, 0x0a, 0xbe, 
  0xd6, 0x8d, 0x7e, 0xbe, 0x58, 0x7c, 0x11, 0x3f, 0x44, 0xe7, 0xb1, 0x3e, 
  0x58, 0xe8, 0x82, 0x3e, 0x54, 0x81, 0xec, 0xbe, 0x93, 0xb4, 0x80, 0x3e, 
  0x2b, 0xb2, 0xb9, 0xbe, 0x5c, 0xab, 0xc1, 0xbd, 0xf5, 0xb6, 0xc9, 0x3e, 
  0x07, 0x03, 0xf2, 0xbe, 0xe0, 0x18, 0xa4, 0x3e, 0x13, 0x49, 0x8e, 0xbe, 
  0x55, 0x18, 0x60, 0x3e, 0x8a, 0x2b, 0xab, 0x3e, 0x4a, 0xfb, 0xff, 0xff, 
  0x04, 0x00, 0x00, 0x00, 0x40, 0x00, 0x00, 0x00, 0x31, 0x00, 0x35, 0xbf, 
  0x00, 0x00, 0x00, 0x00, 0x00, 0x00, 0x00, 0x00, 0x30, 0x34, 0x24, 0x3d, 
  0xbb, 0xe2, 0x18, 0x3f, 0x91, 0x3e, 0x97, 0xbe, 0x00, 0x00, 0x00, 0x00, 
  0x52, 0x7d, 0xa3, 0xbe, 0x00, 0x00, 0x00, 0x00, 0x00, 0x00, 0x00, 0x00, 
  0xa4, 0x44, 0x9e, 0xbe, 0x00, 0x00, 0x00, 0x00, 0x8a, 0x70, 0x47, 0x3f, 
  0x00, 0x00, 0x00, 0x00, 0xa3, 0xad, 0x6c, 0xbf, 0x25, 0xbc, 0x0d, 0x3f, 
  0x96, 0xfb, 0xff, 0xff, 0x04, 0x00, 0x00, 0x00, 0x40, 0x00, 0x00, 0x00, 
  0x42, 0xc6, 0xbc, 0x3e, 0x00, 0x00, 0x00, 0x00, 0x2d, 0x7a, 0xe0, 0xbc, 
  0x77, 0x02, 0x12, 0x3e, 0x50, 0x62, 0xa7, 0xbb, 0x24, 0xc2, 0xc9, 0x3e, 
  0x67, 0x63, 0x01, 0x3f, 0x9c, 0xba, 0xcc, 0xbc, 0x00, 0x00, 0x00, 0x00, 
  0x67, 0x36, 0x59, 0x3e, 0x00, 0x00, 0x00, 0x00, 0x26, 0x22, 0xcd, 0x3e, 
  0x00, 0x00, 0x00, 0x00, 0x4e, 0x96, 0xb7, 0x3e, 0x93, 0xdd, 0x05, 0xbf, 
  0x00, 0x00, 0x00, 0x00, 0xe2, 0xfb, 0xff, 0xff, 0x04, 0x00, 0x00, 0x00, 
  0x04, 0x00, 0x00, 0x00, 0x2a, 0x24, 0x42, 0xbe, 0xf2, 0xfb, 0xff, 0xff, 
  0x04, 0x00, 0x00, 0x00, 0x00, 0x04, 0x00, 0x00, 0x0f, 0x5f, 0x6c, 0xbe, 
  0xb0, 0x44, 0x0f, 0xbe, 0x2a, 0xb9, 0x26, 0x3e, 0x49, 0x64, 0xec, 0xbc, 
  0x24, 0x55, 0xb9, 0x3e, 0x8b, 0x7d, 0xe1, 0xbe, 0xc0, 0x34, 0x99, 0xbe, 
  0x5d, 0x86, 0xbb, 0xbe, 0x09, 0x8f, 0x85, 0x3e, 0x49, 0x20, 0x8e, 0x3e, 
  0xa5, 0xe5, 0xfc, 0xbe, 0x44, 0xce, 0xdb, 0x3d, 0xb3, 0xd3, 0xd5, 0x3e, 
  0xc4, 0xe1, 0x85, 0xbd, 0xaf, 0x5a, 0xa3, 0xbe, 0x72, 0xa5, 0x58, 0xbe, 
  0xec, 0x6b, 0xf5, 0xbd, 0x27, 0x65, 0xbb, 0x3e, 0x42, 0x3f, 0x0b, 0xbe, 
  0xac, 0x47, 0xbf, 0xbe, 0xf0, 0x8d, 0xc8, 0xbe, 0x42, 0xc9, 0x25, 0x3e, 
  0xec, 0x75, 0xe0, 0x3d, 0x30, 0x10, 0x9f, 0xbe, 0x27, 0xad, 0x8c, 0x3e, 
  0xb5, 0xe6, 0x65, 0xbe, 0xe0, 0xc0, 0x66, 0x3c, 0xec, 0x2a, 0xbf, 0x3d, 
  0x20, 0x56, 0xd6, 0xbd, 0xf2, 0x0a, 0x25, 0xbe, 0x60, 0x5c, 0x15, 0x3c, 
  0x20, 0xcf, 0x5e, 0x3d, 0xa0, 0x5f, 0x25, 0x3c, 0x74, 0xcb, 0xfb, 0xbd, 
  0x0c, 0xa2, 0xfd, 0x3d, 0x18, 0x35, 0xc9, 0xbe, 0xf6, 0x71, 0x4b, 0x3c, 
  0x00, 0x35, 0x7c, 0x3d, 0xc2, 0x1b, 0x62, 0xbe, 0xaa, 0x20, 0x06, 0xbe, 
  0x51, 0xfd, 0x8a, 0x3e, 0x3a, 0x06, 0x4a, 0x3e, 0xf6, 0xe2, 0x56, 0x3e, 
  0xb1, 0x1a, 0x86, 0x3e, 0xe4, 0x48, 0x35, 0x3e, 0x60, 0x5b, 0x44, 0xbd, 
  0x18, 0x1b, 0xdd, 0xbd, 0x03, 0x83, 0xe9, 0xbe, 0x54, 0xea, 0x72, 0xbe, 
  0xc8, 0x30, 0x37, 0x3d, 0x56, 0xca, 0x73, 0xbe, 0xbe, 0x54, 0x4e, 0xbd, 
  0x83, 0x95, 0x91, 0x3e, 0xed, 0x9a, 0x72, 0x3e, 0x96, 0x6a, 0x76, 0x3e, 
  0x2a, 0xab, 0x11, 0x3d, 0x50, 0x4d, 0x05, 0x3d, 0x33, 0x97, 0xbf, 0xbe, 
  0x93, 0x5c, 0xb2, 0xbe, 0x65, 0xa1, 0x99, 0x3e, 0x56, 0x9c, 0x9d, 0x3d, 
  0xf4, 0x2b, 0x85, 0x3d, 0x2a, 0x07, 0xc9, 0xbe, 0x45, 0x57, 0x39, 0xbe, 
  0x25, 0xac, 0x9d, 0xbe, 0x60, 0x33, 0x1a, 0x3d, 0x86, 0xd0, 0x30, 0xbe, 
  0xe4, 0x97, 0xc2, 0x3d, 0x1b, 0xa9, 0x4f, 0xbe, 0x1c, 0x01, 0xaf, 0x3d, 
  0xf6, 0x5e, 0x2a, 0x3e, 0xce, 0x78, 0x24, 0x3e, 0xba, 0x1d, 0xa0, 0xbe, 
  0xcc, 0x66, 0xb7, 0x3d, 0x80, 0x32, 0xf0, 0x3b, 0x45, 0xea, 0x70, 0xbe, 
  0xd9, 0x4d, 0xe1, 0xbd, 0xac, 0xba, 0xae, 0xbe, 0x69, 0x73, 0x89, 0x3e, 
  0x7f, 0xd8, 0xa9, 0x3d, 0x43, 0xe6, 0xbc, 0xbe, 0xd3, 0x35, 0xad, 0x3e, 
  0xfe, 0x25, 0x6e, 0x3e, 0xd3, 0xac, 0xb2, 0xbe, 0x3c, 0x82, 0xfa, 0x3e, 
  0xe4, 0xe2, 0x1b, 0xbf, 0x4a, 0x9f, 0xa2, 0xbe, 0x6a, 0x26, 0x10, 0xbf, 
  0x0d, 0x3c, 0x9b, 0xbe, 0x68, 0xa9, 0x21, 0xbe, 0x87, 0x0a, 0x8e, 0xbe, 
  0x58, 0x30, 0x88, 0xbd, 0xe7, 0xf9, 0xa8, 0x3e, 0xa6, 0xa0, 0x61, 0x3e, 
  0x70, 0x6f, 0x7a, 0xbe, 0x76, 0x6e, 0xd7, 0x3e, 0x6d, 0x60, 0x4c, 0xbf, 
  0xe9, 0x99, 0x67, 0xbe, 0xd0, 0x06, 0x8b, 0xbc, 0xa2, 0x1f, 0x8b, 0xbf, 
  0xa9, 0x0c, 0xcc, 0xbe, 0xc5, 0xd6, 0x86, 0xbe, 0x93, 0xc5, 0x9e, 0x3e, 
  0xd2, 0x03, 0x0c, 0x3e, 0x74, 0xf9, 0x81, 0x3d, 0x37, 0x60, 0xb6, 0xbe, 
  0x92, 0x44, 0x04, 0xbf, 0x19, 0xff, 0x7b, 0xbe, 0xfd, 0xc5, 0xb7, 0x3e, 
  0xb9, 0xd5, 0x94, 0x3e, 0x30, 0x15, 0xba, 0xbe, 0x2f, 0x54, 0x5d, 0x3d, 
  0x31, 0x19, 0x15, 0x3e, 0x80, 0x99, 0xdb, 0xbd, 0x19, 0xfb, 0xa6, 0x3e, 
  0xf1, 0x14, 0xcd, 0xbd, 0xfb, 0x25, 0xb4, 0x3e, 0xa2, 0x61, 0xa2, 0xbe, 
  0x10, 0x50, 0x59, 0xbd, 0x69, 0xa3, 0x42, 0x3d, 0x40, 0x9d, 0x65, 0x3d, 
  0xc4, 0x41, 0xb6, 0xbd, 0x05, 0xea, 0x9c, 0x3e, 0x44, 0x45, 0x35, 0xbe, 
  0x26, 0x6f, 0xc6, 0xbe, 0xa1, 0x4d, 0x90, 0x3e, 0x64, 0xe6, 0x0c, 0x3e, 
  0x81, 0x1e, 0x5c, 0x3e, 0x8f, 0x4b, 0xb5, 0xbe, 0x8a, 0x28, 0xc2, 0xbe, 
  0x45, 0x59, 0xd2, 0xbe, 0xe8, 0x54, 0xd6, 0xbe, 0x30, 0x1a, 0x67, 0xbd, 
  0xaf, 0x9e, 0xd4, 0xbe, 0x34, 0xa8, 0xce, 0x3d, 0xcd, 0x31, 0xd0, 0xbe, 
  0x3c, 0xf9, 0xa9, 0x3d, 0x87, 0x14, 0x87, 0x3e, 0x95, 0xd6, 0x8e, 0xbe, 
  0xb1, 0xd4, 0xc3, 0x3e, 0xec, 0x1b, 0xef, 0x3d, 0x6c, 0xda, 0xd1, 0xbd, 
  0x54, 0x9f, 0xc9, 0xbd, 0x99, 0x50, 0x5d, 0xbe, 0x85, 0x9f, 0xff, 0xbe, 
  0x92, 0xc9, 0x5a, 0xbe, 0xd6, 0xcf, 0x9f, 0xbe, 0xa1, 0x8b, 0xb4, 0x3e, 
  0xa3, 0x18, 0xa8, 0x3e, 0x2d, 0xe6, 0x2a, 0x3e, 0xe5, 0xdb, 0xbb, 0x3e, 
  0x42, 0xb0, 0xe2, 0xbd, 0x90, 0xe4, 0x47, 0xbd, 0x0c, 0x21, 0x5a, 0xbe, 
  0xa5, 0xef, 0xe9, 0x3d, 0x09, 0xf9, 0x9e, 0xbe, 0x4c, 0xda, 0xb8, 0x3d, 
  0xa2, 0xe8, 0x17, 0x3e, 0x8f, 0x4e, 0x79, 0xbf, 0xe5, 0x6d, 0xe8, 0xbd, 
  0x18, 0x2b, 0xc8, 0xbd, 0xd4, 0xc1, 0x84, 0xbe, 0x40, 0x4c, 0x87, 0xbc, 
  0xde, 0x41, 0x90, 0xbe, 0x92, 0x9e, 0x12, 0x3e, 0x18, 0x49, 0x06, 0xbd, 
  0xdd, 0xa2, 0xd9, 0xbe, 0x8c, 0x84, 0xcf, 0xbd, 0x7b, 0x33, 0x9f, 0xbe, 
  0x54, 0xb3, 0xcb, 0xbe, 0xee, 0x5e, 0xa2, 0xbe, 0x9b, 0x4c, 0xa3, 0x3e, 
  0x30, 0xd4, 0xf9, 0xbc, 0x6c, 0xfc, 0xa6, 0xbe, 0xf4, 0xff, 0xda, 0xbe, 
  0xef, 0xf7, 0x60, 0xbe, 0x56, 0xa1, 0x1a, 0xbf, 0x33, 0x62, 0x4f, 0xbe, 
  0x4b, 0x8f, 0x8f, 0x3e, 0x63, 0x3d, 0x33, 0xbf, 0x12, 0x5c, 0x97, 0xbe, 
  0xbf, 0x83, 0xaa, 0xbe, 0x50, 0xcd, 0x94, 0xbd, 0x93, 0xfa, 0x85, 0x3d, 
  0x54, 0xac, 0xac, 0x3d, 0x50, 0xaa, 0x06, 0x3d, 0xfd, 0x77, 0x2f, 0xbf, 
  0xf8, 0xff, 0xd0, 0xbe, 0x5f, 0x8d, 0xdd, 0x3e, 0xe5, 0xd4, 0x99, 0xbe, 
  0x56, 0x32, 0x81, 0xbd, 0x3e, 0x66, 0xbe, 0x3e, 0xdc, 0xad, 0xb6, 0xbe, 
  0x88, 0x7e, 0x38, 0x3d, 0x50, 0xf7, 0x60, 0xbe, 0xd9, 0x98, 0x68, 0xbe, 
  0xaa, 0x0a, 0xcd, 0xbe, 0x00, 0xb6, 0x59, 0xbb, 0x16, 0x7e, 0x26, 0xbe, 
  0xd4, 0x3d, 0xeb, 0xbd, 0x03, 0x4e, 0xd2, 0x3e, 0x2a, 0x4f, 0x1c, 0x3e, 
  0x3f, 0x30, 0xbc, 0x3e, 0x02, 0x2b, 0x77, 0x3e, 0xea, 0xf0, 0xd6, 0xbe, 
  0x1f, 0x4f, 0xbb, 0x3e, 0x98, 0xb2, 0xc8, 0xbe, 0x90, 0x20, 0xe7, 0xbc, 
  0x06, 0x4e, 0xcb, 0xbe, 0x5f, 0xea, 0x8a, 0x3e, 0xec, 0x6e, 0xf9, 0xbd, 
  0x53, 0xeb, 0x69, 0xbe, 0x3d, 0xa1, 0x6c, 0xbc, 0x58, 0x16, 0x26, 0x3e, 
  0x8f, 0xa6, 0xc7, 0xbe, 0x82, 0x96, 0xad, 0xbe, 0x90, 0x1d, 0xcc, 0xbe, 
  0x4d, 0xc0, 0xc5, 0x3e, 0xdb, 0xda, 0xbd, 0xbe, 0x1c, 0x5a, 0xbb, 0xbe, 
  0xba, 0x89, 0x99, 0x3e, 0x38, 0x40, 0x73, 0x3d, 0xc2, 0x9f, 0x29, 0xbd, 
  0x74, 0xd5, 0xdf, 0xbc, 0xf1, 0x2c, 0xee, 0x3e, 0x81, 0x0d, 0xcd, 0x3e, 
  0xb8, 0xf5, 0xa5, 0xbe, 0xe7, 0x78, 0xac, 0x3d, 0xdf, 0x7c, 0x38, 0x3e, 
  0x08, 0x3f, 0xe6, 0x3d, 0xe9, 0x48, 0xbd, 0x3e, 0x8d, 0x15, 0x2d, 0xbe, 
  0x60, 0x73, 0x57, 0xbc, 0x62, 0x70, 0x6c, 0xbe, 0x49, 0x11, 0x50, 0x3e, 
  0xb5, 0x07, 0xc9, 0x3e, 0x1d, 0x69, 0xa1, 0xbe, 0xd5, 0xa9, 0x91, 0x3e, 
  0x51, 0x1d, 0x6e, 0x3f, 0x68, 0x68, 0xbc, 0xbe, 0x9e, 0xa8, 0x73, 0xbe, 
  0x08, 0x47, 0x62, 0x3d, 0x35, 0x8b, 0x88, 0xbe, 0xd6, 0xc7, 0x57, 0xbe, 
  0x01, 0x18, 0x84, 0xbe, 0x7e, 0xaf, 0xae, 0xbe, 0x51, 0x2b, 0xbb, 0xbe, 
  0x40, 0x2c, 0xee, 0xbd, 0x90, 0xab, 0xf7, 0xbd, 0x60, 0xf8, 0xc8, 0xbe, 
  0x6e, 0x39, 0x70, 0x3e, 0xed, 0x01, 0xd5, 0x3e, 0xac, 0xc0, 0xbc, 0xbe, 
  0x70, 0x2d, 0x31, 0x3d, 0xb7, 0xb4, 0xb5, 0xbe, 0x5f, 0xaf, 0x87, 0xbe, 
  0x00, 0x00, 0x06, 0x00, 0x08, 0x00, 0x04, 0x00, 0x06, 0x00, 0x00, 0x00, 
  0x04, 0x00, 0x00, 0x00, 0x40, 0x00, 0x00, 0x00, 0x8c, 0x4d, 0x9a, 0x3f, 
  0xaa, 0x7d, 0x15, 0xbe, 0x93, 0xea, 0xf0, 0x3e, 0x3d, 0x5d, 0x4b, 0xbf, 
  0xe9, 0x0f, 0x02, 0x3f, 0x17, 0x6b, 0x97, 0x3f, 0x7e, 0x83, 0x37, 0xbf, 
  0x57, 0x50, 0xa9, 0x3c, 0x34, 0x91, 0x74, 0x3e, 0xfa, 0xeb, 0x58, 0xbf, 
  0x3d, 0x64, 0x12, 0xbf, 0x1f, 0xba, 0x4d, 0xbf, 0x66, 0x43, 0x06, 0x3f, 
  0xa8, 0x01, 0x7e, 0xbf, 0xf7, 0x4d, 0xb5, 0x3f, 0xf0, 0x3c, 0xf4, 0x3e, 
  0x38, 0xfb, 0xff, 0xff, 0x3c, 0xfb, 0xff, 0xff, 0x0f, 0x00, 0x00, 0x00, 
  0x4d, 0x4c, 0x49, 0x52, 0x20, 0x43, 0x6f, 0x6e, 0x76, 0x65, 0x72, 0x74, 
  0x65, 0x64, 0x2e, 0x00, 0x01, 0x00, 0x00, 0x00, 0x14, 0x00, 0x00, 0x00, 
  0x00, 0x00, 0x0e, 0x00, 0x18, 0x00, 0x14, 0x00, 0x10, 0x00, 0x0c, 0x00, 
  0x08, 0x00, 0x04, 0x00, 0x0e, 0x00, 0x00, 0x00, 0x14, 0x00, 0x00, 0x00, 
  0x1c, 0x00, 0x00, 0x00, 0xd8, 0x00, 0x00, 0x00, 0xdc, 0x00, 0x00, 0x00, 
  0xe0, 0x00, 0x00, 0x00, 0x04, 0x00, 0x00, 0x00, 0x6d, 0x61, 0x69, 0x6e, 
  0x00, 0x00, 0x00, 0x00, 0x03, 0x00, 0x00, 0x00, 0x80, 0x00, 0x00, 0x00, 
  0x38, 0x00, 0x00, 0x00, 0x04, 0x00, 0x00, 0x00, 0x9a, 0xff, 0xff, 0xff, 
  0x10, 0x00, 0x00, 0x00, 0x00, 0x00, 0x00, 0x08, 0x0c, 0x00, 0x00, 0x00, 
  0x10, 0x00, 0x00, 0x00, 0xb4, 0xfb, 0xff, 0xff, 0x01, 0x00, 0x00, 0x00, 
  0x09, 0x00, 0x00, 0x00, 0x03, 0x00, 0x00, 0x00, 0x08, 0x00, 0x00, 0x00, 
  0x01, 0x00, 0x00, 0x00, 0x03, 0x00, 0x00, 0x00, 0xca, 0xff, 0xff, 0xff, 
  0x10, 0x00, 0x00, 0x00, 0x00, 0x00, 0x00, 0x08, 0x10, 0x00, 0x00, 0x00, 
  0x14, 0x00, 0x00, 0x00, 0xba, 0xff, 0xff, 0xff, 0x00, 0x00, 0x00, 0x01, 
  0x01, 0x00, 0x00, 0x00, 0x08, 0x00, 0x00, 0x00, 0x03, 0x00, 0x00, 0x00, 
  0x07, 0x00, 0x00, 0x00, 0x02, 0x00, 0x00, 0x00, 0x04, 0x00, 0x00, 0x00, 
  0x00, 0x00, 0x0e, 0x00, 0x16, 0x00, 0x00, 0x00, 0x10, 0x00, 0x0c, 0x00, 
  0x0b, 0x00, 0x04, 0x00, 0x0e, 0x00, 0x00, 0x00, 0x18, 0x00, 0x00, 0x00, 
  0x00, 0x00, 0x00, 0x08, 0x18, 0x00, 0x00, 0x00, 0x1c, 0x00, 0x00, 0x00, 
  0x00, 0x00, 0x06, 0x00, 0x08, 0x00, 0x07, 0x00, 0x06, 0x00, 0x00, 0x00, 
  0x00, 0x00, 0x00, 0x01, 0x01, 0x00, 0x00, 0x00, 0x07, 0x00, 0x00, 0x00, 
  0x03, 0x00, 0x00, 0x00, 0x00, 0x00, 0x00, 0x00, 0x06, 0x00, 0x00, 0x00, 
  0x05, 0x00, 0x00, 0x00, 0x01, 0x00, 0x00, 0x00, 0x09, 0x00, 0x00, 0x00, 
  0x01, 0x00, 0x00, 0x00, 0x00, 0x00, 0x00, 0x00, 0x0a, 0x00, 0x00, 0x00, 
  0x74, 0x03, 0x00, 0x00, 0x1c, 0x03, 0x00, 0x00, 0xc4, 0x02, 0x00, 0x00, 
  0x88, 0x02, 0x00, 0x00, 0x4c, 0x02, 0x00, 0x00, 0xf0, 0x01, 0x00, 0x00, 
  0xa0, 0x01, 0x00, 0x00, 0x00, 0x01, 0x00, 0x00, 0x60, 0x00, 0x00, 0x00, 
  0x04, 0x00, 0x00, 0x00, 0xca, 0xfc, 0xff, 0xff, 0x00, 0x00, 0x00, 0x01, 
  0x14, 0x00, 0x00, 0x00, 0x1c, 0x00, 0x00, 0x00, 0x1c, 0x00, 0x00, 0x00, 
  0x0a, 0x00, 0x00, 0x00, 0x34, 0x00, 0x00, 0x00, 0x02, 0x00, 0x00, 0x00, 
  0xff, 0xff, 0xff, 0xff, 0x01, 0x00, 0x00, 0x00, 0xb4, 0xfc, 0xff, 0xff, 
  0x1b, 0x00, 0x00, 0x00, 0x53, 0x74, 0x61, 0x74, 0x65, 0x66, 0x75, 0x6c, 
  0x50, 0x61, 0x72, 0x74, 0x69, 0x74, 0x69, 0x6f, 0x6e, 0x65, 0x64, 0x43, 
  0x61, 0x6c, 0x6c, 0x5f, 0x31, 0x3a, 0x30, 0x00, 0x02, 0x00, 0x00, 0x00, 
  0x01, 0x00, 0x00, 0x00, 0x01, 0x00, 0x00, 0x00, 0x22, 0xfd, 0xff, 0xff, 
  0x00, 0x00, 0x00, 0x01, 0x14, 0x00, 0x00, 0x00, 0x1c, 0x00, 0x00, 0x00, 
  0x1c, 0x00, 0x00, 0x00, 0x09, 0x00, 0x00, 0x00, 0x78, 0x00, 0x00, 0x00, 
  0x02, 0x00, 0x00, 0x00, 0xff, 0xff, 0xff, 0xff, 0x10, 0x00, 0x00, 0x00, 
  0x0c, 0xfd, 0xff, 0xff, 0x5e, 0x00, 0x00, 0x00, 0x73, 0x65, 0x71, 0x75, 
  0x65, 0x6e, 0x74, 0x69, 0x61, 0x6c, 0x5f, 0x31, 0x5f, 0x31, 0x2f, 0x64, 
  0x65, 0x6e, 0x73, 0x65, 0x5f, 0x33, 0x5f, 0x31, 0x2f, 0x4d, 0x61, 0x74, 
  0x4d, 0x75, 0x6c, 0x3b, 0x73, 0x65, 0x71, 0x75, 0x65, 0x6e, 0x74, 0x69, 
  0x61, 0x6c, 0x5f, 0x31, 0x5f, 0x31, 0x2f, 0x64, 0x65, 0x6e, 0x73, 0x65, 
  0x5f, 0x33, 0x5f, 0x31, 0x2f, 0x52, 0x65, 0x6c, 0x75, 0x3b, 0x73, 0x65, 
  0x71, 0x75, 0x65, 0x6e, 0x74, 0x69, 0x61, 0x6c, 0x5f, 0x31, 0x5f, 0x31, 
  0x2f, 0x64, 0x65, 0x6e, 0x73, 0x65, 0x5f, 0x33, 0x5f, 0x31, 0x2f, 0x42, 
  0x69, 0x61, 0x73, 0x41, 0x64, 0x64, 0x00, 0x00, 0x02, 0x00, 0x00, 0x00, 
  0x01, 0x00, 0x00, 0x00, 0x10, 0x00, 0x00, 0x00, 0xbe, 0xfd, 0xff, 0xff, 
  0x00, 0x00, 0x00, 0x01, 0x14, 0x00, 0x00, 0x00, 0x1c, 0x00, 0x00, 0x00, 
  0x1c, 0x00, 0x00, 0x00, 0x08, 0x00, 0x00, 0x00, 0x78, 0x00, 0x00, 0x00, 
  0x02, 0x00, 0x00, 0x00, 0xff, 0xff, 0xff, 0xff, 0x10, 0x00, 0x00, 0x00, 
  0xa8, 0xfd, 0xff, 0xff, 0x5e, 0x00, 0x00, 0x00, 0x73, 0x65, 0x71, 0x75, 
  0x65, 0x6e, 0x74, 0x69, 0x61, 0x6c, 0x5f, 0x31, 0x5f, 0x31, 0x2f, 0x64, 
  0x65, 0x6e, 0x73, 0x65, 0x5f, 0x32, 0x5f, 0x31, 0x2f, 0x4d, 0x61, 0x74, 
  0x4d, 0x75, 0x6c, 0x3b, 0x73, 0x65, 0x71, 0x75, 0x65, 0x6e, 0x74, 0x69, 
  0x61, 0x6c, 0x5f, 0x31, 0x5f, 0x31, 0x2f, 0x64, 0x65, 0x6e, 0x73, 0x65, 
  0x5f, 0x32, 0x5f, 0x31, 0x2f, 0x52, 0x65, 0x6c, 0x75, 0x3b, 0x73, 0x65, 
  0x71, 0x75, 0x65, 0x6e, 0x74, 0x69, 0x61, 0x6c, 0x5f, 0x31, 0x5f, 0x31, 
  0x2f, 0x64, 0x65, 0x6e, 0x73, 0x65, 0x5f, 0x32, 0x5f, 0x31, 0x2f, 0x42, 
  0x69, 0x61, 0x73, 0x41, 0x64, 0x64, 0x00, 0x00, 0x02, 0x00, 0x00, 0x00, 
  0x01, 0x00, 0x00, 0x00, 0x10, 0x00, 0x00, 0x00, 0xae, 0xfe, 0xff, 0xff, 
  0x00, 0x00, 0x00, 0x01, 0x10, 0x00, 0x00, 0x00, 0x10, 0x00, 0x00, 0x00, 
  0x07, 0x00, 0x00, 0x00, 0x2c, 0x00, 0x00, 0x00, 0x34, 0xfe, 0xff, 0xff, 
  0x1f, 0x00, 0x00, 0x00, 0x73, 0x65, 0x71, 0x75, 0x65, 0x6e, 0x74, 0x69, 
  0x61, 0x6c, 0x5f, 0x31, 0x5f, 0x31, 0x2f, 0x64, 0x65, 0x6e, 0x73, 0x65, 
  0x5f, 0x32, 0x5f, 0x31, 0x2f, 0x4d, 0x61, 0x74, 0x4d, 0x75, 0x6c, 0x00, 
  0x02, 0x00, 0x00, 0x00, 0x10, 0x00, 0x00, 0x00, 0x01, 0x00, 0x00, 0x00, 
  0xfa, 0xfe, 0xff, 0xff, 0x00, 0x00, 0x00, 0x01, 0x10, 0x00, 0x00, 0x00, 
  0x10, 0x00, 0x00, 0x00, 0x06, 0x00, 0x00, 0x00, 0x3c, 0x00, 0x00, 0x00, 
  0x80, 0xfe, 0xff, 0xff, 0x2f, 0x00, 0x00, 0x00, 0x73, 0x65, 0x71, 0x75, 
  0x65, 0x6e, 0x74, 0x69, 0x61, 0x6c, 0x5f, 0x31, 0x5f, 0x31, 0x2f, 0x64, 
  0x65, 0x6e, 0x73, 0x65, 0x5f, 0x32, 0x5f, 0x31, 0x2f, 0x42, 0x69, 0x61, 
  0x73, 0x41, 0x64, 0x64, 0x2f, 0x52, 0x65, 0x61, 0x64, 0x56, 0x61, 0x72, 
  0x69, 0x61, 0x62, 0x6c, 0x65, 0x4f, 0x70, 0x00, 0x01, 0x00, 0x00, 0x00, 
  0x10, 0x00, 0x00, 0x00, 0x52, 0xff, 0xff, 0xff, 0x00, 0x00, 0x00, 0x01, 
  0x10, 0x00, 0x00, 0x00, 0x10, 0x00, 0x00, 0x00, 0x05, 0x00, 0x00, 0x00, 
  0x1c, 0x00, 0x00, 0x00, 0xd8, 0xfe, 0xff, 0xff, 0x0f, 0x00, 0x00, 0x00, 
  0x61, 0x72, 0x69, 0x74, 0x68, 0x2e, 0x63, 0x6f, 0x6e, 0x73, 0x74, 0x61, 
  0x6e, 0x74, 0x33, 0x00, 0x01, 0x00, 0x00, 0x00, 0x10, 0x00, 0x00, 0x00, 
  0x8a, 0xff, 0xff, 0xff, 0x00, 0x00, 0x00, 0x01, 0x10, 0x00, 0x00, 0x00, 
  0x10, 0x00, 0x00, 0x00, 0x04, 0x00, 0x00, 0x00, 0x1c, 0x00, 0x00, 0x00, 
  0x10, 0xff, 0xff, 0xff, 0x0f, 0x00, 0x00, 0x00, 0x61, 0x72, 0x69, 0x74, 
  0x68, 0x2e, 0x63, 0x6f, 0x6e, 0x73, 0x74, 0x61, 0x6e, 0x74, 0x32, 0x00, 
  0x01, 0x00, 0x00, 0x00, 0x01, 0x00, 0x00, 0x00, 0xc2, 0xff, 0xff, 0xff, 
  0x00, 0x00, 0x00, 0x01, 0x10, 0x00, 0x00, 0x00, 0x10, 0x00, 0x00, 0x00, 
  0x03, 0x00, 0x00, 0x00, 0x1c, 0x00, 0x00, 0x00, 0x48, 0xff, 0xff, 0xff, 
  0x0f, 0x00, 0x00, 0x00, 0x61, 0x72, 0x69, 0x74, 0x68, 0x2e, 0x63, 0x6f, 
  0x6e, 0x73, 0x74, 0x61, 0x6e, 0x74, 0x31, 0x00, 0x02, 0x00, 0x00, 0x00, 
  0x10, 0x00, 0x00, 0x00, 0x10, 0x00, 0x00, 0x00, 0x00, 0x00, 0x16, 0x00, 
  0x18, 0x00, 0x14, 0x00, 0x00, 0x00, 0x10, 0x00, 0x0c, 0x00, 0x08, 0x00, 
  0x00, 0x00, 0x00, 0x00, 0x00, 0x00, 0x07, 0x00, 0x16, 0x00, 0x00, 0x00, 
  0x00, 0x00, 0x00, 0x01, 0x10, 0x00, 0x00, 0x00, 0x10, 0x00, 0x00, 0x00, 
  0x02, 0x00, 0x00, 0x00, 0x1c, 0x00, 0x00, 0x00, 0x9c, 0xff, 0xff, 0xff, 
  0x0e, 0x00, 0x00, 0x00, 0x61, 0x72, 0x69, 0x74, 0x68, 0x2e, 0x63, 0x6f, 
  0x6e, 0x73, 0x74, 0x61, 0x6e, 0x74, 0x00, 0x00, 0x02, 0x00, 0x00, 0x00, 
  0x01, 0x00, 0x00, 0x00, 0x10, 0x00, 0x00, 0x00, 0x00, 0x00, 0x16, 0x00, 
  0x1c, 0x00, 0x18, 0x00, 0x00, 0x00, 0x14, 0x00, 0x10, 0x00, 0x0c, 0x00, 
  0x00, 0x00, 0x00, 0x00, 0x08, 0x00, 0x07, 0x00, 0x16, 0x00, 0x00, 0x00, 
  0x00, 0x00, 0x00, 0x01, 0x14, 0x00, 0x00, 0x00, 0x20, 0x00, 0x00, 0x00, 
  0x20, 0x00, 0x00, 0x00, 0x01, 0x00, 0x00, 0x00, 0x40, 0x00, 0x00, 0x00, 
  0x02, 0x00, 0x00, 0x00, 0xff, 0xff, 0xff, 0xff, 0x01, 0x00, 0x00, 0x00, 
  0x04, 0x00, 0x04, 0x00, 0x04, 0x00, 0x00, 0x00, 0x20, 0x00, 0x00, 0x00, 
  0x73, 0x65, 0x72, 0x76, 0x69, 0x6e, 0x67, 0x5f, 0x64, 0x65, 0x66, 0x61, 
  0x75, 0x6c, 0x74, 0x5f, 0x6b, 0x65, 0x72, 0x61, 0x73, 0x5f, 0x74, 0x65, 
  0x6e, 0x73, 0x6f, 0x72, 0x5f, 0x33, 0x3a, 0x30, 0x00, 0x00, 0x00, 0x00, 
  0x02, 0x00, 0x00, 0x00, 0x01, 0x00, 0x00, 0x00, 0x01, 0x00, 0x00, 0x00, 
  0x01, 0x00, 0x00, 0x00, 0x10, 0x00, 0x00, 0x00, 0x0c, 0x00, 0x0c, 0x00, 
  0x0b, 0x00, 0x00, 0x00, 0x00, 0x00, 0x04, 0x00, 0x0c, 0x00, 0x00, 0x00, 
  0x09, 0x00, 0x00, 0x00, 0x00, 0x00, 0x00, 0x09, 
};
const unsigned int model_float_tflite_len = 3164;
