const unsigned char model_int8_vela_tflite[] = {
  0x20, 0x00, 0x00, 0x00, 0x54, 0x46, 0x4c, 0x33, 0x00, 0x00, 0x00, 0x00, 
  0x00, 0x00, 0x12, 0x00, 0x1c, 0x00, 0x18, 0x00, 0x14, 0x00, 0x10, 0x00, 
  0x0c, 0x00, 0x08, 0x00, 0x00, 0x00, 0x04, 0x00, 0x12, 0x00, 0x00, 0x00, 
  0x18, 0x00, 0x00, 0x00, 0xe8, 0x00, 0x00, 0x00, 0x18, 0x0b, 0x00, 0x00, 
  0x68, 0x08, 0x00, 0x00, 0x2c, 0x0b, 0x00, 0x00, 0x03, 0x00, 0x00, 0x00, 
  0x05, 0x00, 0x00, 0x00, 0xac, 0x00, 0x00, 0x00, 0x7c, 0x00, 0x00, 0x00, 
  0x54, 0x00, 0x00, 0x00, 0x30, 0x00, 0x00, 0x00, 0x04, 0x00, 0x00, 0x00, 
  0x70, 0xff, 0xff, 0xff, 0x07, 0x00, 0x00, 0x00, 0x04, 0x00, 0x00, 0x00, 
  0x17, 0x00, 0x00, 0x00, 0x4f, 0x66, 0x66, 0x6c, 0x69, 0x6e, 0x65, 0x4d, 
  0x65, 0x6d, 0x6f, 0x72, 0x79, 0x41, 0x6c, 0x6c, 0x6f, 0x63, 0x61, 0x74, 
  0x69, 0x6f, 0x6e, 0x00, 0x98, 0xff, 0xff, 0xff, 0x06, 0x00, 0x00, 0x00, 
  0x04, 0x00, 0x00, 0x00, 0x0c, 0x00, 0x00, 0x00, 0x76, 0x65, 0x6c, 0x61, 
  0x5f, 0x76, 0x65, 0x72, 0x73, 0x69, 0x6f, 0x6e, 0x00, 0x00, 0x00, 0x00, 
  0xb8, 0xff, 0xff, 0xff, 0x05, 0x00, 0x00, 0x00, 0x04, 0x00, 0x00, 0x00, 
  0x13, 0x00, 0x00, 0x00, 0x43, 0x4f, 0x4e, 0x56, 0x45, 0x52, 0x53, 0x49, 
  0x4f, 0x4e, 0x5f, 0x4d, 0x45, 0x54, 0x41, 0x44, 0x41, 0x54, 0x41, 0x00, 
  0xdc, 0xff, 0xff, 0xff, 0x04, 0x00, 0x00, 0x00, 0x04, 0x00, 0x00, 0x00, 
  0x13, 0x00, 0x00, 0x00, 0x6d, 0x69, 0x6e, 0x5f, 0x72, 0x75, 0x6e, 0x74, 
  0x69, 0x6d, 0x65, 0x5f, 0x76, 0x65, 0x72, 0x73, 0x69, 0x6f, 0x6e, 0x00, 
  0x08, 0x00, 0x0c, 0x00, 0x08, 0x00, 0x04, 0x00, 0x08, 0x00, 0x00, 0x00, 
  0x03, 0x00, 0x00, 0x00, 0x04, 0x00, 0x00, 0x00, 0x13, 0x00, 0x00, 0x00, 
  0x6d, 0x69, 0x6e, 0x5f, 0x72, 0x75, 0x6e, 0x74, 0x69, 0x6d, 0x65, 0x5f, 
  0x76, 0x65, 0x72, 0x73, 0x69, 0x6f, 0x6e, 0x00, 0x08, 0x00, 0x00, 0x00, 
  0x80, 0x07, 0x00, 0x00, 0x7c, 0x05, 0x00, 0x00, 0x18, 0x01, 0x00, 0x00, 
  0xf4, 0x00, 0x00, 0x00, 0xd0, 0x00, 0x00, 0x00, 0x5c, 0x00, 0x00, 0x00, 
  0x38, 0x00, 0x00, 0x00, 0x04, 0x00, 0x00, 0x00, 0xa6, 0xfa, 0xff, 0xff, 
  0x04, 0x00, 0x00, 0x00, 0x24, 0x00, 0x00, 0x00, 0x00, 0x00, 0x00, 0x00, 
  0x01, 0x00, 0x00, 0x00, 0x06, 0x00, 0x00, 0x00, 0x10, 0x00, 0x00, 0x00, 
  0xff, 0xff, 0xff, 0xff, 0xff, 0xff, 0xff, 0xff, 0x00, 0x00, 0x00, 0x00, 
  0x00, 0x00, 0x00, 0x00, 0x00, 0x00, 0x00, 0x00, 0xd6, 0xfa, 0xff, 0xff, 
  0x04, 0x00, 0x00, 0x00, 0x05, 0x00, 0x00, 0x00, 0x34, 0x2e, 0x32, 0x2e, 
  0x30, 0x00, 0x00, 0x00, 0x00, 0x00, 0x00, 0x00, 0x00, 0x00, 0x00, 0x00, 
  0x00, 0x00, 0x00, 0x00, 0xf6, 0xfa, 0xff, 0xff, 0x04, 0x00, 0x00, 0x00, 
  0x60, 0x00, 0x00, 0x00, 0x0c, 0x00, 0x00, 0x00, 0x08, 0x00, 0x0e, 0x00, 
  0x08, 0x00, 0x04, 0x00, 0x08, 0x00, 0x00, 0x00, 0x10, 0x00, 0x00, 0x00, 
  0x28, 0x00, 0x00, 0x00, 0x00, 0x00, 0x06, 0x00, 0x08, 0x00, 0x04, 0x00, 
  0x06, 0x00, 0x00, 0x00, 0x04, 0x00, 0x00, 0x00, 0x01, 0x00, 0x00, 0x00, 
  0xeb, 0x03, 0x00, 0x00, 0x0c, 0x00, 0x18, 0x00, 0x14, 0x00, 0x10, 0x00, 
  0x0c, 0x00, 0x04, 0x00, 0x0c, 0x00, 0x00, 0x00, 0x81, 0xb3, 0x15, 0xa4, 
  0xc0, 0x39, 0xf4, 0x0d, 0x02, 0x00, 0x00, 0x00, 0x02, 0x00, 0x00, 0x00, 
  0x04, 0x00, 0x00, 0x00, 0x06, 0x00, 0x00, 0x00, 0x32, 0x2e, 0x31, 0x37, 
  0x2e, 0x30, 0x00, 0x00, 0x00, 0x00, 0x00, 0x00, 0x66, 0xfb, 0xff, 0xff, 
  0x04, 0x00, 0x00, 0x00, 0x10, 0x00, 0x00, 0x00, 0x00, 0x00, 0x00, 0x00, 
  0x00, 0x00, 0x00, 0x00, 0x00, 0x00, 0x00, 0x00, 0x00, 0x00, 0x00, 0x00, 
  0x00, 0x00, 0x00, 0x00, 0x86, 0xfb, 0xff, 0xff, 0x04, 0x00, 0x00, 0x00, 
  0x10, 0x00, 0x00, 0x00, 0x31, 0x2e, 0x31, 0x34, 0x2e, 0x30, 0x00, 0x00, 
  0x00, 0x00, 0x00, 0x00, 0x00, 0x00, 0x00, 0x00, 0x00, 0x00, 0x00, 0x00, 
  0xa6, 0xfb, 0xff, 0xff, 0x04, 0x00, 0x00, 0x00, 0x40, 0x04, 0x00, 0x00, 
  0x00, 0x00, 0x00, 0x00, 0x00, 0x00, 0x00, 0x00, 0x00, 0x00, 0x00, 0x00, 
  0x00, 0x00, 0x00, 0x00, 0x00, 0x00, 0x00, 0x00, 0x00, 0x00, 0x00, 0x00, 
  0x00, 0x00, 0x00, 0x00, 0x00, 0x00, 0x00, 0x00, 0x00, 0x00, 0x00, 0x00, 
  0x00, 0x00, 0x00, 0x00, 0x00, 0x00, 0x00, 0x00, 0x00, 0x00, 0x00, 0x00, 
  0x00, 0x00, 0x00, 0x00, 0x00, 0x00, 0x00, 0x00, 0x00, 0x00, 0x00, 0x00, 
  0x00, 0x00, 0x00, 0x00, 0x00, 0x00, 0x00, 0x00, 0x00, 0x00, 0x00, 0x00, 
  0x00, 0x00, 0x00, 0x00, 0x00, 0x00, 0x00, 0x00, 0x00, 0x00, 0x00, 0x00, 
  0x00, 0x00, 0x00, 0x00, 0x00, 0x00, 0x00, 0x00, 0x00, 0x00, 0x00, 0x00, 
  0x00, 0x00, 0x00, 0x00, 0x00, 0x00, 0x00, 0x00, 0x00, 0x00, 0x00, 0x00, 
  0x00, 0x00, 0x00, 0x00, 0x00, 0x00, 0x00, 0x00, 0x00, 0x00, 0x00, 0x00, 
  0x00, 0x00, 0x00, 0x00, 0x00, 0x00, 0x00, 0x00, 0x00, 0x00, 0x00, 0x00, 
  0x00, 0x00, 0x00, 0x00, 0x00, 0x00, 0x00, 0x00, 0x00, 0x00, 0x00, 0x00, 
  0x00, 0x00, 0x00, 0x00, 0x00, 0x00, 0x00, 0x00, 0x00, 0x00, 0x00, 0x00, 
  0x00, 0x00, 0x00, 0x00, 0x00, 0x00, 0x00, 0x00, 0x00, 0x00, 0x00, 0x00, 
  0x00, 0x00, 0x00, 0x00, 0x00, 0x00, 0x00, 0x00, 0x00, 0x00, 0x00, 0x00, 
  0x00, 0x00, 0x00, 0x00, 0x00, 0x00, 0x00, 0x00, 0x00, 0x00, 0x00, 0x00, 
  0x00, 0x00, 0x00, 0x00, 0x00, 0x00, 0x00, 0x00, 0x00, 0x00, 0x00, 0x00, 
  0x00, 0x00, 0x00, 0x00, 0x00, 0x00, 0x00, 0x00, 0x00, 0x00, 0x00, 0x00, 
  0x00, 0x00, 0x00, 0x00, 0x00, 0x00, 0x00, 0x00, 0x00, 0x00, 0x00, 0x00, 
  0x00, 0x00, 0x00, 0x00, 0x00, 0x00, 0x00, 0x00, 0x00, 0x00, 0x00, 0x00, 
  0x00, 0x00, 0x00, 0x00, 0x00, 0x00, 0x00, 0x00, 0x00, 0x00, 0x00, 0x00, 
  0x00, 0x00, 0x00, 0x00, 0x00, 0x00, 0x00, 0x00, 0x00, 0x00, 0x00, 0x00, 
  0x00, 0x00, 0x00, 0x00, 0x00, 0x00, 0x00, 0x00, 0x00, 0x00, 0x00, 0x00, 
  0x00, 0x00, 0x00, 0x00, 0x00, 0x00, 0x00, 0x00, 0x00, 0x00, 0x00, 0x00, 
  0x00, 0x00, 0x00, 0x00, 0x00, 0x00, 0x00, 0x00, 0x00, 0x00, 0x00, 0x00, 
  0x00, 0x00, 0x00, 0x00, 0x00, 0x00, 0x00, 0x00, 0x00, 0x00, 0x00, 0x00, 
  0x00, 0x00, 0x00, 0x00, 0x00, 0x00, 0x00, 0x00, 0x00, 0x00, 0x00, 0x00, 
  0x00, 0x00, 0x00, 0x00, 0x00, 0x00, 0x00, 0x00, 0x00, 0x00, 0x00, 0x00, 
  0x71, 0xfc, 0xff, 0xff, 0xff, 0x14, 0xf4, 0x5e, 0x42, 0x25, 0x00, 0x00, 
  0x00, 0x00, 0x00, 0xd3, 0x70, 0x45, 0x57, 0x26, 0xf2, 0x06, 0x00, 0x00, 
  0x00, 0x25, 0x12, 0xf3, 0x47, 0x26, 0x00, 0x00, 0x00, 0x00, 0x00, 0x28, 
  0x76, 0xcd, 0x73, 0x28, 0x00, 0x00, 0x00, 0x00, 0x00, 0xdf, 0x60, 0xb0, 
  0x4c, 0x27, 0xed, 0xec, 0xff, 0xff, 0xff, 0x22, 0xb3, 0xaf, 0x40, 0x25, 
  0x41, 0x2c, 0x00, 0x00, 0x00, 0x2c, 0xab, 0x0f, 0x52, 0x26, 0x5f, 0xdf, 
  0xff, 0xff, 0xff, 0x33, 0xb9, 0xcc, 0x4d, 0x26, 0x00, 0x00, 0x00, 0x00, 
  0x00, 0x63, 0x84, 0x4e, 0x60, 0x26, 0xef, 0xeb, 0xff, 0xff, 0xff, 0x8d, 
  0x79, 0x0d, 0x70, 0x26, 0x11, 0xc5, 0xff, 0xff, 0xff, 0x6e, 0xda, 0xe7, 
  0x59, 0x27, 0x81, 0x38, 0x01, 0x00, 0x00, 0x80, 0x01, 0x63, 0x50, 0x28, 
  0x00, 0x00, 0x00, 0x00, 0x00, 0x27, 0x80, 0x4c, 0x41, 0x26, 0x00, 0x00, 
  0x00, 0x00, 0x00, 0x78, 0x7d, 0xc7, 0x69, 0x28, 0xc0, 0xfe, 0xff, 0xff, 
  0xff, 0x99, 0xaa, 0xf7, 0x5c, 0x27, 0x59, 0x32, 0x00, 0x00, 0x00, 0x7f, 
  0x1c, 0x00, 0x6b, 0x27, 0x7b, 0x00, 0xdc, 0x1f, 0xec, 0xff, 0x0f, 0xf0, 
  0xaf, 0x11, 0xf8, 0xff, 0xff, 0xff, 0xf3, 0x0f, 0xf0, 0xff, 0xff, 0xff, 
  0xff, 0xff, 0x0f, 0xf0, 0xff, 0xff, 0xff, 0xff, 0xff, 0xff, 0xff, 0xff, 
  0x80, 0x0e, 0x00, 0x00, 0x00, 0x83, 0x42, 0xbd, 0x73, 0x26, 0xa4, 0xde, 
  0xff, 0xff, 0xff, 0x06, 0x4c, 0xd0, 0x45, 0x26, 0x00, 0x00, 0x00, 0x00, 
  0x00, 0xf9, 0x31, 0x2a, 0x40, 0x26, 0x00, 0x00, 0x00, 0x00, 0x00, 0xe9, 
  0x32, 0x8f, 0x7a, 0x27, 0x00, 0x00, 0x00, 0x00, 0x00, 0x68, 0x4e, 0xec, 
  0x7e, 0x27, 0x70, 0x1e, 0x00, 0x00, 0x00, 0x24, 0x0e, 0x4b, 0x43, 0x26, 
  0xef, 0x1e, 0x00, 0x00, 0x00, 0xad, 0x9c, 0xe3, 0x4b, 0x26, 0x6f, 0xfc, 
  0xff, 0xff, 0xff, 0x8e, 0x24, 0x53, 0x7e, 0x27, 0x40, 0x12, 0x00, 0x00, 
  0x00, 0xfb, 0xb0, 0x1c, 0x50, 0x26, 0xb1, 0xe7, 0xff, 0xff, 0xff, 0x3b, 
  0x34, 0xfb, 0x59, 0x26, 0xa9, 0xfd, 0xff, 0xff, 0xff, 0x67, 0x77, 0x17, 
  0x6d, 0x27, 0xff, 0xfc, 0xff, 0xff, 0xff, 0xbb, 0x7c, 0x45, 0x77, 0x27, 
  0x30, 0x1c, 0x00, 0x00, 0x00, 0x55, 0xc3, 0x59, 0x47, 0x25, 0x6c, 0x1d, 
  0x00, 0x00, 0x00, 0x04, 0x76, 0xdf, 0x74, 0x27, 0x6c, 0x1b, 0x00, 0x00, 
  0x00, 0xd7, 0x71, 0x34, 0x59, 0x26, 0xa6, 0xdf, 0xff, 0xff, 0xff, 0x5f, 
  0x3e, 0xda, 0x43, 0x26, 0xf8, 0x03, 0xdc, 0x01, 0x0c, 0x00, 0x1b, 0x43, 
  0x4e, 0x53, 0x10, 0xa8, 0x4b, 0xce, 0x00, 0x60, 0x6c, 0x58, 0xc5, 0x84, 
  0xdd, 0x6d, 0xb1, 0x0f, 0x00, 0xa6, 0x7e, 0x0b, 0x14, 0x0e, 0x5d, 0x3f, 
  0xf6, 0xda, 0x92, 0xc0, 0x08, 0x19, 0x0e, 0x27, 0xfc, 0x00, 0x00, 0x45, 
  0x19, 0x96, 0x66, 0x87, 0x00, 0x09, 0x07, 0x00, 0xf6, 0x57, 0x72, 0xa7, 
  0x7a, 0xa8, 0xfb, 0xdc, 0x63, 0x4c, 0x44, 0xaf, 0xbd, 0x69, 0x91, 0x97, 
  0x00, 0x60, 0x9a, 0xc7, 0xdf, 0x6a, 0x42, 0xaf, 0x48, 0x05, 0x00, 0x68, 
  0x12, 0xfc, 0x77, 0x49, 0x02, 0x71, 0x3b, 0x84, 0xb7, 0x79, 0x22, 0x32, 
  0x29, 0x97, 0x87, 0x00, 0x30, 0x8b, 0xe1, 0xc1, 0xa8, 0x05, 0xb1, 0xcc, 
  0x0f, 0x00, 0xa3, 0xad, 0x6a, 0xa8, 0x1c, 0x08, 0x2d, 0xc6, 0xc4, 0x13, 
  0xfc, 0xf0, 0xe2, 0x2e, 0x57, 0x37, 0x00, 0xc0, 0x02, 0x47, 0x99, 0x0f, 
  0xb6, 0x5c, 0x71, 0x0e, 0xf0, 0x12, 0xc2, 0xfc, 0xc3, 0xcf, 0x46, 0x48, 
  0xdf, 0xff, 0x2f, 0x71, 0x11, 0xb4, 0xa9, 0x05, 0x73, 0x42, 0xff, 0xff, 
  0xff, 0xff, 0xff, 0xff, 0xff, 0xff, 0xff, 0xff, 0xff, 0xff, 0xff, 0xff, 
  0x0f, 0x30, 0x00, 0xc0, 0x01, 0xf0, 0x01, 0xfa, 0x00, 0x07, 0x00, 0x3e, 
  0xd3, 0x28, 0xc5, 0xfc, 0x2a, 0xf9, 0xa3, 0x00, 0xe0, 0x87, 0x75, 0x65, 
  0x62, 0x39, 0x6a, 0x80, 0x0e, 0x00, 0xf8, 0x4d, 0x7e, 0x03, 0x2a, 0x2c, 
  0xa6, 0xa7, 0xfb, 0x8a, 0x1d, 0xfe, 0xf8, 0xa1, 0x24, 0xd1, 0x01, 0x80, 
  0x89, 0xba, 0x03, 0x80, 0x2c, 0xf6, 0xae, 0x03, 0x00, 0x82, 0x38, 0x3b, 
  0xb4, 0x77, 0x6b, 0x15, 0x36, 0x22, 0x76, 0x54, 0x2a, 0x22, 0x4f, 0x9c, 
  0xf7, 0x01, 0xe0, 0xa0, 0xe7, 0x87, 0x7b, 0x1f, 0xb3, 0x91, 0x0c, 0x00, 
  0x38, 0xe8, 0xe6, 0x8a, 0x86, 0x94, 0x45, 0x62, 0x66, 0xf7, 0x2d, 0x44, 
  0x68, 0x7f, 0x34, 0x45, 0x01, 0x00, 0xe9, 0x53, 0xd0, 0x0c, 0x85, 0xa5, 
  0x7d, 0x0f, 0x00, 0x30, 0x55, 0x34, 0xb9, 0x8d, 0x5f, 0x93, 0x8e, 0x94, 
  0x94, 0xe7, 0x25, 0xc2, 0xf8, 0x81, 0xf9, 0x01, 0x80, 0x52, 0xae, 0x20, 
  0x31, 0xb7, 0x70, 0xd6, 0x03, 0x00, 0x20, 0x28, 0xf6, 0x17, 0xfe, 0x06, 
  0x0c, 0x29, 0xc7, 0xa3, 0xb8, 0xa4, 0x36, 0xcf, 0x07, 0x00, 0x38, 0xff, 
  0xff, 0xba, 0x00, 0xf8, 0xff, 0xff, 0xff, 0xff, 0xff, 0xff, 0xff, 0xff, 
  0xff, 0xff, 0xff, 0xff, 0x3a, 0xf3, 0xff, 0xff, 0xff, 0x01, 0x91, 0x4f, 
  0x78, 0x25, 0x00, 0x00, 0x00, 0x00, 0x00, 0x00, 0x71, 0x00, 0x5c, 0xf1, 
  0xec, 0xcf, 0x7d, 0x8d, 0x0c, 0x97, 0xf6, 0x95, 0x85, 0xa4, 0x03, 0xc3, 
  0x72, 0x12, 0x22, 0x21, 0x00, 0xf0, 0xff, 0x3f, 0xeb, 0x69, 0x50, 0x1f, 
  0xa4, 0x0c, 0xf0, 0xff, 0xd2, 0x07, 0x00, 0x00, 0x03, 0x00, 0x9c, 0xff, 
  0x7f, 0xfc, 0xc3, 0xff, 0xff, 0xff, 0xff, 0xff, 0x00, 0x00, 0x00, 0x00, 
  0x00, 0x00, 0x00, 0x00, 0x00, 0x00, 0x00, 0x00, 0x00, 0x00, 0x06, 0x00, 
  0x08, 0x00, 0x04, 0x00, 0x06, 0x00, 0x00, 0x00, 0x04, 0x00, 0x00, 0x00, 
  0xf0, 0x01, 0x00, 0x00, 0x43, 0x4f, 0x50, 0x31, 0x01, 0x00, 0x10, 0x00, 
  0x08, 0x30, 0x00, 0x00, 0x00, 0x00, 0x06, 0x10, 0x05, 0x00, 0x00, 0x00, 
  0x05, 0x00, 0x00, 0x00, 0x05, 0x00, 0x00, 0x00, 0x02, 0x00, 0x74, 0x00, 
  0x0f, 0x01, 0x01, 0x00, 0x00, 0x40, 0x00, 0x00, 0x00, 0x00, 0x00, 0x00, 
  0x01, 0x40, 0x00, 0x00, 0x00, 0x00, 0x00, 0x00, 0x02, 0x40, 0x00, 0x00, 
  0x00, 0x00, 0x00, 0x00, 0x03, 0x40, 0x00, 0x00, 0x00, 0x00, 0x00, 0x00, 
  0x0b, 0x01, 0x00, 0x00, 0x0c, 0x01, 0x00, 0x00, 0x0a, 0x01, 0x00, 0x00, 
  0x04, 0x01, 0x00, 0x00, 0x06, 0x40, 0x00, 0x00, 0x01, 0x00, 0x00, 0x00, 
  0x05, 0x40, 0x00, 0x00, 0x01, 0x00, 0x00, 0x00, 0x04, 0x40, 0x00, 0x00, 
  0x01, 0x00, 0x00, 0x00, 0x09, 0x01, 0x80, 0xff, 0x05, 0x01, 0x01, 0x00, 
  0x07, 0x01, 0x00, 0x00, 0x00, 0x01, 0x00, 0x00, 0x01, 0x01, 0x00, 0x00, 
  0x03, 0x01, 0x00, 0x00, 0x02, 0x01, 0x00, 0x00, 0x1f, 0x01, 0x01, 0x00, 
  0x10, 0x40, 0x00, 0x00, 0x10, 0x00, 0x00, 0x00, 0x11, 0x40, 0x00, 0x00, 
  0x00, 0x00, 0x00, 0x00, 0x12, 0x40, 0x00, 0x00, 0x00, 0x00, 0x00, 0x00, 
  0x13, 0x40, 0x00, 0x00, 0x00, 0x00, 0x00, 0x00, 0x1b, 0x01, 0x00, 0x00, 
  0x1c, 0x01, 0x00, 0x00, 0x1a, 0x01, 0x00, 0x00, 0x12, 0x01, 0x00, 0x00, 
  0x11, 0x01, 0x00, 0x00, 0x13, 0x01, 0x0f, 0x00, 0x16, 0x40, 0x00, 0x00, 
  0x10, 0x00, 0x00, 0x00, 0x15, 0x40, 0x00, 0x00, 0x10, 0x00, 0x00, 0x00, 
  0x14, 0x40, 0x00, 0x00, 0x10, 0x00, 0x00, 0x00, 0x18, 0x01, 0x80, 0xff, 
  0x14, 0x01, 0x41, 0x00, 0x21, 0x01, 0x00, 0x00, 0x20, 0x01, 0x00, 0x00, 
  0x22, 0x01, 0x00, 0x00, 0x28, 0x01, 0x00, 0x00, 0x20, 0x40, 0x00, 0x00, 
  0xf0, 0x01, 0x00, 0x00, 0x21, 0x40, 0x00, 0x00, 0x20, 0x00, 0x00, 0x00, 
  0x29, 0x01, 0x00, 0x00, 0x22, 0x40, 0x00, 0x00, 0x50, 0x01, 0x00, 0x00, 
  0x23, 0x40, 0x00, 0x00, 0xa0, 0x00, 0x00, 0x00, 0x25, 0x01, 0x00, 0x00, 
  0x26, 0x01, 0x80, 0xff, 0x27, 0x01, 0x7f, 0x00, 0x16, 0x01, 0x01, 0x00, 
  0x15, 0x01, 0x01, 0x00, 0x17, 0x01, 0x0f, 0x00, 0x0d, 0x01, 0x0a, 0x00, 
  0x2d, 0x01, 0x1e, 0x00, 0x24, 0x01, 0x00, 0x00, 0x2f, 0x01, 0x00, 0x00, 
  0x02, 0x00, 0x00, 0x00, 0x00, 0x40, 0x00, 0x00, 0x10, 0x00, 0x00, 0x00, 
  0x04, 0x01, 0x0f, 0x00, 0x06, 0x40, 0x00, 0x00, 0x10, 0x00, 0x00, 0x00, 
  0x05, 0x40, 0x00, 0x00, 0x10, 0x00, 0x00, 0x00, 0x04, 0x40, 0x00, 0x00, 
  0x10, 0x00, 0x00, 0x00, 0x05, 0x01, 0x41, 0x00, 0x10, 0x40, 0x00, 0x00, 
  0x00, 0x00, 0x00, 0x00, 0x20, 0x40, 0x00, 0x00, 0xb0, 0x02, 0x00, 0x00, 
  0x21, 0x40, 0x00, 0x00, 0x50, 0x01, 0x00, 0x00, 0x22, 0x40, 0x00, 0x00, 
  0x10, 0x02, 0x00, 0x00, 0x02, 0x00, 0x00, 0x00, 0x00, 0x40, 0x00, 0x00, 
  0x00, 0x00, 0x00, 0x00, 0x10, 0x40, 0x00, 0x00, 0x10, 0x00, 0x00, 0x00, 
  0x13, 0x01, 0x00, 0x00, 0x16, 0x40, 0x00, 0x00, 0x01, 0x00, 0x00, 0x00, 
  0x15, 0x40, 0x00, 0x00, 0x01, 0x00, 0x00, 0x00, 0x14, 0x40, 0x00, 0x00, 
  0x01, 0x00, 0x00, 0x00, 0x18, 0x01, 0xfe, 0xff, 0x14, 0x01, 0x01, 0x00, 
  0x20, 0x40, 0x00, 0x00, 0x10, 0x04, 0x00, 0x00, 0x21, 0x40, 0x00, 0x00, 
  0x30, 0x00, 0x00, 0x00, 0x22, 0x40, 0x00, 0x00, 0x00, 0x04, 0x00, 0x00, 
  0x23, 0x40, 0x00, 0x00, 0x10, 0x00, 0x00, 0x00, 0x17, 0x01, 0x07, 0x00, 
  0x02, 0x00, 0x00, 0x00, 0x00, 0x00, 0xff, 0xff, 0x04, 0x00, 0x04, 0x00, 
  0x04, 0x00, 0x00, 0x00, 0x01, 0x00, 0x00, 0x00, 0x14, 0x00, 0x00, 0x00, 
  0x00, 0x00, 0x0e, 0x00, 0x18, 0x00, 0x14, 0x00, 0x10, 0x00, 0x0c, 0x00, 
  0x08, 0x00, 0x04, 0x00, 0x0e, 0x00, 0x00, 0x00, 0x84, 0x02, 0x00, 0x00, 
  0x10, 0x00, 0x00, 0x00, 0x74, 0x00, 0x00, 0x00, 0x78, 0x00, 0x00, 0x00, 
  0x7c, 0x00, 0x00, 0x00, 0x01, 0x00, 0x00, 0x00, 0x1c, 0x00, 0x00, 0x00, 
  0x00, 0x00, 0x16, 0x00, 0x18, 0x00, 0x00, 0x00, 0x14, 0x00, 0x10, 0x00, 
  0x00, 0x00, 0x00, 0x00, 0x08, 0x00, 0x00, 0x00, 0x04, 0x00, 0x0c, 0x00, 
  0x16, 0x00, 0x00, 0x00, 0x14, 0x00, 0x00, 0x00, 0x14, 0x00, 0x00, 0x00, 
  0x18, 0x00, 0x00, 0x00, 0x18, 0x00, 0x00, 0x00, 0x1c, 0x00, 0x00, 0x00, 
  0x00, 0x00, 0x00, 0x00, 0x03, 0x00, 0x00, 0x00, 0x01, 0x04, 0x01, 0x00, 
  0x00, 0x00, 0x00, 0x00, 0x01, 0x00, 0x00, 0x00, 0x00, 0x00, 0x00, 0x00, 
  0x05, 0x00, 0x00, 0x00, 0x01, 0x00, 0x00, 0x00, 0x02, 0x00, 0x00, 0x00, 
  0x03, 0x00, 0x00, 0x00, 0x04, 0x00, 0x00, 0x00, 0x05, 0x00, 0x00, 0x00, 
  0x01, 0x00, 0x00, 0x00, 0x00, 0x00, 0x00, 0x00, 0x01, 0x00, 0x00, 0x00, 
  0x05, 0x00, 0x00, 0x00, 0x06, 0x00, 0x00, 0x00, 0x84, 0x01, 0x00, 0x00, 
  0x34, 0x01, 0x00, 0x00, 0xf0, 0x00, 0x00, 0x00, 0xb8, 0x00, 0x00, 0x00, 
  0x70, 0x00, 0x00, 0x00, 0x04, 0x00, 0x00, 0x00, 0xa2, 0xfe, 0xff, 0xff, 
  0x10, 0x00, 0x00, 0x00, 0x2c, 0x00, 0x00, 0x00, 0x00, 0x00, 0x00, 0x09, 
  0x4c, 0x00, 0x00, 0x00, 0x94, 0xfe, 0xff, 0xff, 0x08, 0x00, 0x00, 0x00, 
  0x10, 0x00, 0x00, 0x00, 0x01, 0x00, 0x00, 0x00, 0x80, 0xff, 0xff, 0xff, 
  0xff, 0xff, 0xff, 0xff, 0x01, 0x00, 0x00, 0x00, 0x5d, 0x4f, 0xc9, 0x3c, 
  0x20, 0x00, 0x00, 0x00, 0x73, 0x65, 0x72, 0x76, 0x69, 0x6e, 0x67, 0x5f, 
  0x64, 0x65, 0x66, 0x61, 0x75, 0x6c, 0x74, 0x5f, 0x6b, 0x65, 0x72, 0x61, 
  0x73, 0x5f, 0x74, 0x65, 0x6e, 0x73, 0x6f, 0x72, 0x5f, 0x33, 0x3a, 0x30, 
  0x00, 0x00, 0x00, 0x00, 0x02, 0x00, 0x00, 0x00, 0x01, 0x00, 0x00, 0x00, 
  0x01, 0x00, 0x00, 0x00, 0xc8, 0xff, 0xff, 0xff, 0x0c, 0x00, 0x00, 0x00, 
  0x00, 0x00, 0x00, 0x03, 0x24, 0x00, 0x00, 0x00, 0x19, 0x00, 0x00, 0x00, 
  0x6d, 0x61, 0x69, 0x6e, 0x5f, 0x73, 0x70, 0x6c, 0x69, 0x74, 0x5f, 0x31, 
  0x5f, 0x73, 0x63, 0x72, 0x61, 0x74, 0x63, 0x68, 0x5f, 0x66, 0x61, 0x73, 
  0x74, 0x00, 0x00, 0x00, 0x01, 0x00, 0x00, 0x00, 0x20, 0x00, 0x00, 0x00, 
  0x0c, 0x00, 0x10, 0x00, 0x0c, 0x00, 0x0b, 0x00, 0x00, 0x00, 0x04, 0x00, 
  0x0c, 0x00, 0x00, 0x00, 0x0c, 0x00, 0x00, 0x00, 0x00, 0x00, 0x00, 0x03, 
  0x20, 0x00, 0x00, 0x00, 0x14, 0x00, 0x00, 0x00, 0x6d, 0x61, 0x69, 0x6e, 
  0x5f, 0x73, 0x70, 0x6c, 0x69, 0x74, 0x5f, 0x31, 0x5f, 0x73, 0x63, 0x72, 
  0x61, 0x74, 0x63, 0x68, 0x00, 0x00, 0x00, 0x00, 0x01, 0x00, 0x00, 0x00, 
  0x20, 0x00, 0x00, 0x00, 0xcc, 0xff, 0xff, 0xff, 0x10, 0x00, 0x00, 0x00, 
  0x02, 0x00, 0x00, 0x00, 0x00, 0x00, 0x00, 0x03, 0x1c, 0x00, 0x00, 0x00, 
  0x12, 0x00, 0x00, 0x00, 0x6d, 0x61, 0x69, 0x6e, 0x5f, 0x73, 0x70, 0x6c, 
  0x69, 0x74, 0x5f, 0x31, 0x5f, 0x66, 0x6c, 0x61, 0x73, 0x68, 0x00, 0x00, 
  0x01, 0x00, 0x00, 0x00, 0x40, 0x04, 0x00, 0x00, 0x0c, 0x00, 0x14, 0x00, 
  0x10, 0x00, 0x0f, 0x00, 0x08, 0x00, 0x04, 0x00, 0x0c, 0x00, 0x00, 0x00, 
  0x10, 0x00, 0x00, 0x00, 0x01, 0x00, 0x00, 0x00, 0x00, 0x00, 0x00, 0x03, 
  0x24, 0x00, 0x00, 0x00, 0x1b, 0x00, 0x00, 0x00, 0x6d, 0x61, 0x69, 0x6e, 
  0x5f, 0x73, 0x70, 0x6c, 0x69, 0x74, 0x5f, 0x31, 0x5f, 0x63, 0x6f, 0x6d, 
  0x6d, 0x61, 0x6e, 0x64, 0x5f, 0x73, 0x74, 0x72, 0x65, 0x61, 0x6d, 0x00, 
  0x01, 0x00, 0x00, 0x00, 0xf0, 0x01, 0x00, 0x00, 0x00, 0x00, 0x0e, 0x00, 
  0x14, 0x00, 0x10, 0x00, 0x0f, 0x00, 0x00, 0x00, 0x08, 0x00, 0x04, 0x00, 
  0x0e, 0x00, 0x00, 0x00, 0x1c, 0x00, 0x00, 0x00, 0x3c, 0x00, 0x00, 0x00, 
  0x00, 0x00, 0x00, 0x09, 0x54, 0x00, 0x00, 0x00, 0x0c, 0x00, 0x0c, 0x00, 
  0x00, 0x00, 0x00, 0x00, 0x08, 0x00, 0x04, 0x00, 0x0c, 0x00, 0x00, 0x00, 
  0x08, 0x00, 0x00, 0x00, 0x14, 0x00, 0x00, 0x00, 0x01, 0x00, 0x00, 0x00, 
  0xfe, 0xff, 0xff, 0xff, 0xff, 0xff, 0xff, 0xff, 0x00, 0x00, 0x00, 0x00, 
  0x01, 0x00, 0x00, 0x00, 0xb4, 0xb5, 0x06, 0x3c, 0x1b, 0x00, 0x00, 0x00, 
  0x53, 0x74, 0x61, 0x74, 0x65, 0x66, 0x75, 0x6c, 0x50, 0x61, 0x72, 0x74, 
  0x69, 0x74, 0x69, 0x6f, 0x6e, 0x65, 0x64, 0x43, 0x61, 0x6c, 0x6c, 0x5f, 
  0x31, 0x3a, 0x30, 0x00, 0x02, 0x00, 0x00, 0x00, 0x01, 0x00, 0x00, 0x00, 
  0x01, 0x00, 0x00, 0x00, 0x04, 0x00, 0x00, 0x00, 0x6d, 0x61, 0x69, 0x6e, 
  0x00, 0x00, 0x00, 0x00, 0x14, 0x00, 0x00, 0x00, 0x56, 0x65, 0x6c, 0x61, 
  0x20, 0x34, 0x2e, 0x32, 0x2e, 0x30, 0x20, 0x4f, 0x70, 0x74, 0x69, 0x6d, 
  0x69, 0x73, 0x65, 0x64, 0x00, 0x00, 0x00, 0x00, 0x01, 0x00, 0x00, 0x00, 
  0x10, 0x00, 0x00, 0x00, 0x0c, 0x00, 0x10, 0x00, 0x0f, 0x00, 0x04, 0x00, 
  0x00, 0x00, 0x08, 0x00, 0x0c, 0x00, 0x00, 0x00, 0x0c, 0x00, 0x00, 0x00, 
  0x20, 0x00, 0x00, 0x00, 0x00, 0x00, 0x00, 0x20, 0x07, 0x00, 0x00, 0x00, 
  0x65, 0x74, 0x68, 0x6f, 0x73, 0x2d, 0x75, 0x00, 
};
const unsigned int model_int8_vela_tflite_len = 2960;
