const unsigned char model_float_tflite[] = {
  0x1c, 0x00, 0x00, 0x00, 0x54, 0x46, 0x4c, 0x33, 0x14, 0x00, 0x20, 0x00, 
  0x1c, 0x00, 0x18, 0x00, 0x14, 0x00, 0x10, 0x00, 0x0c, 0x00, 0x00, 0x00, 
  0x08, 0x00, 0x04, 0x00, 0x14, 0x00, 0x00, 0x00, 0x1c, 0x00, 0x00, 0x00, 
  0x98, 0x00, 0x00, 0x00, 0xf0, 0x00, 0x00, 0x00, 0x14, 0x07, 0x00, 0x00, 
  0x24, 0x07, 0x00, 0x00, 0x08, 0x0c, 0x00, 0x00, 0x03, 0x00, 0x00, 0x00, 
  0x01, 0x00, 0x00, 0x00, 0x10, 0x00, 0x00, 0x00, 0x00, 0x00, 0x0a, 0x00, 
  0x10, 0x00, 0x0c, 0x00, 0x08, 0x00, 0x04, 0x00, 0x0a, 0x00, 0x00, 0x00, 
  0x0c, 0x00, 0x00, 0x00, 0x1c, 0x00, 0x00, 0x00, 0x3c, 0x00, 0x00, 0x00, 
  0x0f, 0x00, 0x00, 0x00, 0x73, 0x65, 0x72, 0x76, 0x69, 0x6e, 0x67, 0x5f, 
  0x64, 0x65, 0x66, 0x61, 0x75, 0x6c, 0x74, 0x00, 0x01, 0x00, 0x00, 0x00, 
  0x04, 0x00, 0x00, 0x00, 0x90, 0xff, 0xff, 0xff, 0x09, 0x00, 0x00, 0x00, 
  0x04, 0x00, 0x00, 0x00, 0x08, 0x00, 0x00, 0x00, 0x6f, 0x75, 0x74, 0x70, 
  0x75, 0x74, 0x5f, 0x30, 0x00, 0x00, 0x00, 0x00, 0x01, 0x00, 0x00, 0x00, 
  0x04, 0x00, 0x00, 0x00, 0xba, 0xf9, 0xff, 0xff, 0x04, 0x00, 0x00, 0x00, 
  0x0e, 0x00, 0x00, 0x00, 0x6b, 0x65, 0x72, 0x61, 0x73, 0x5f, 0x74, 0x65, 
  0x6e, 0x73, 0x6f, 0x72, 0x5f, 0x33, 0x00, 0x00, 0x02, 0x00, 0x00, 0x00, 
  0x34, 0x00, 0x00, 0x00, 0x04, 0x00, 0x00, 0x00, 0xdc, 0xff, 0xff, 0xff, 
  0x0c, 0x00, 0x00, 0x00, 0x04, 0x00, 0x00, 0x00, 0x13, 0x00, 0x00, 0x00, 
  0x43, 0x4f, 0x4e, 0x56, 0x45, 0x52, 0x53, 0x49, 0x4f, 0x4e, 0x5f, 0x4d, 
  0x45, 0x54, 0x41, 0x44, 0x41, 0x54, 0x41, 0x00, 0x08, 0x00, 0x0c, 0x00, 
  0x08, 0x00, 0x04, 0x00, 0x08, 0x00, 0x00, 0x00, 0x0b, 0x00, 0x00, 0x00, 
  0x04, 0x00, 0x00, 0x00, 0x13, 0x00, 0x00, 0x00, 0x6d, 0x69, 0x6e, 0x5f, 
  0x72, 0x75, 0x6e, 0x74, 0x69, 0x6d, 0x65, 0x5f, 0x76, 0x65, 0x72, 0x73, 
  0x69, 0x6f, 0x6e, 0x00, 0x0d, 0x00, 0x00, 0x00, 0x20, 0x06, 0x00, 0x00, 
  0x18, 0x06, 0x00, 0x00, 0xc8, 0x05, 0x00, 0x00, 0xb0, 0x01, 0x00, 0x00, 
  0x9c, 0x01, 0x00, 0x00, 0x4c, 0x01, 0x00, 0x00, 0xfc, 0x00, 0x00, 0x00, 
  0xac, 0x00, 0x00, 0x00, 0xa4, 0x00, 0x00, 0x00, 0x9c, 0x00, 0x00, 0x00, 
  0x94, 0x00, 0x00, 0x00, 0x74, 0x00, 0x00, 0x00, 0x04, 0x00, 0x00, 0x00, 
  0x6a, 0xfa, 0xff, 0xff, 0x04, 0x00, 0x00, 0x00, 0x60, 0x00, 0x00, 0x00, 
  0x10, 0x00, 0x00, 0x00, 0x00, 0x00, 0x00, 0x00, 0x08, 0x00, 0x0e, 0x00, 
  0x08, 0x00, 0x04, 0x00, 0x08, 0x00, 0x00, 0x00, 0x10, 0x00, 0x00, 0x00, 
  0x24, 0x00, 0x00, 0x00, 0x00, 0x00, 0x06, 0x00, 0x08, 0x00, 0x04, 0x00, 
  0x06, 0x00, 0x00, 0x00, 0x04, 0x00, 0x00, 0x00, 0x00, 0x00, 0x00, 0x00, 
  0x0c, 0x00, 0x18, 0x00, 0x14, 0x00, 0x10, 0x00, 0x0c, 0x00, 0x04, 0x00, 
  0x0c, 0x00, 0x00, 0x00, 0x81, 0x83, 0x3c, 0x81, 0xe8, 0x66, 0xe1, 0x77, 
  0x02, 0x00, 0x00, 0x00, 0x02, 0x00, 0x00, 0x00, 0x04, 0x00, 0x00, 0x00, 
  0x06, 0x00, 0x00, 0x00, 0x32, 0x2e, 0x31, 0x37, 0x2e, 0x30, 0x00, 0x00, 
  0xd6, 0xfa, 0xff, 0xff, 0x04, 0x00, 0x00, 0x00, 0x10, 0x00, 0x00, 0x00, 
  0x31, 0x2e, 0x35, 0x2e, 0x30, 0x00, 0x00, 0x00, 0x00, 0x00, 0x00, 0x00, 
  0x00, 0x00, 0x00, 0x00, 0xd8, 0xf5, 0xff, 0xff, 0xdc, 0xf5, 0xff, 0xff, 
  0xe0, 0xf5, 0xff, 0xff, 0xfe, 0xfa, 0xff, 0xff, 0x04, 0x00, 0x00, 0x00, 
  0x40, 0x00, 0x00, 0x00, 0x4c, 0xda, 0xf6, 0x3e, 0x68, 0x6f, 0x53, 0xbe, 
  0x43, 0x1e, 0xcd, 0xbe, 0x5e, 0x15, 0x0d, 0x3f, 0x68, 0x44, 0x8c, 0xbd, 
  0xf0, 0x90, 0xf7, 0x3e, 0x0e, 0x87, 0xe7, 0x3e, 0x96, 0xbf, 0xd5, 0x3e, 
  0x38, 0x7e, 0x3a, 0xbe, 0xa0, 0xff, 0xd8, 0xbe, 0x50, 0x8c, 0x14, 0xbf, 
  0xf2, 0x09, 0xef, 0x3e, 0xb6, 0x61, 0x30, 0x3e, 0x73, 0x5b, 0xb2, 0x3e, 
  0x46, 0xf1, 0x63, 0xbe, 0x80, 0xf7, 0x6c, 0xbc, 0x4a, 0xfb, 0xff, 0xff, 
  0x04, 0x00, 0x00, 0x00, 0x40, 0x00, 0x00, 0x00, 0xa1, 0xc2, 0x1d, 0x3c, 
  0x00, 0x00, 0x00, 0x00, 0x00, 0x00, 0x00, 0x00, 0x60, 0x3e, 0xe4, 0xbe, 
  0x00, 0x00, 0x00, 0x00, 0x17, 0x85, 0xb2, 0x3e, 0x77, 0x07, 0x4c, 0xbe, 
  0xbd, 0x2b, 0x4b, 0x3e, 0x00, 0x00, 0x00, 0x00, 0x00, 0x00, 0x00, 0x00, 
  0x00, 0x00, 0x00, 0x00, 0xa6, 0x3b, 0x02, 0xbf, 0x2b, 0x15, 0x58, 0xbf, 
  0xf3, 0x9b, 0x87, 0xbe, 0x00, 0x00, 0x00, 0x00, 0x00, 0x00, 0x00, 0x00, 
  0x96, 0xfb, 0xff, 0xff, 0x04, 0x00, 0x00, 0x00, 0x40, 0x00, 0x00, 0x00, 
  0x46, 0x21, 0xdb, 0xbb, 0x6e, 0x97, 0xa9, 0xbe, 0x99, 0x32, 0xa3, 0x3e, 
  0x9b, 0x83, 0x97, 0x3e, 0xa8, 0xfa, 0x24, 0x3f, 0xe1, 0xd7, 0xf9, 0x3e, 
  0x68, 0x6c, 0xb0, 0x3e, 0x9f, 0x0c, 0xa4, 0xbe, 0x18, 0x4b, 0x18, 0x3e, 
  0xba, 0x96, 0x01, 0x3f, 0xd9, 0x23, 0xbf, 0xbe, 0x3f, 0x36, 0x9c, 0xbe, 
  0xf2, 0x31, 0xc4, 0x3e, 0x57, 0xb4, 0x80, 0x3f, 0xd2, 0x7d, 0xea, 0xbc, 
  0xf0, 0xd8, 0x59, 0x3e, 0xe2, 0xfb, 0xff, 0xff, 0x04, 0x00, 0x00, 0x00, 
  0x04, 0x00, 0x00, 0x00, 0x21, 0x22, 0xae, 0xbe, 0xf2, 0xfb, 0xff, 0xff, 
  0x04, 0x00, 0x00, 0x00, 0x00, 0x04, 0x00, 0x00, 0xeb, 0xe2, 0x13, 0xbe, 
  0x8c, 0x7c, 0x94, 0xbe, 0x48, 0x6b, 0xf0, 0xbd, 0x60, 0xef, 0xa6, 0xbe, 
  0xf0, 0x73, 0x5b, 0x3d, 0xd5, 0xe1, 0x9c, 0xbe, 0x1f, 0xf8, 0x11, 0xbe, 
  0xfa, 0x7f, 0x55, 0x3e, 0x8a, 0xb8, 0x58, 0x3e, 0x9f, 0x4b, 0xd3, 0x3e, 
  0x4f, 0x53, 0xb7, 0xbe, 0x5b, 0x7a, 0x55, 0x3e, 0xb7, 0x9c, 0xc0, 0x3e, 
  0x20, 0x69, 0x97, 0x3e, 0xf1, 0x80, 0xd6, 0x3e, 0x85, 0x05, 0xb3, 0x3e, 
  0x43, 0x29, 0x6a, 0xbe, 0x8d, 0x6a, 0x97, 0x3e, 0x8e, 0xe6, 0x19, 0xbe, 
  0x91, 0x42, 0x5e, 0x3e, 0xd0, 0xe2, 0x46, 0x3d, 0x97, 0xcf, 0xb9, 0x3e, 
  0x22, 0x49, 0xb6, 0x3c, 0xed, 0x39, 0x70, 0x3e, 0x1f, 0x84, 0xc0, 0x3e, 
  0x32, 0x7a, 0x32, 0x3e, 0xa0, 0xab, 0x27, 0x3c, 0x69, 0xec, 0x1f, 0xbd, 
  0xbc, 0xcc, 0x5b, 0x3f, 0x94, 0x3d, 0x30, 0x3e, 0xcb, 0x65, 0x60, 0xbe, 
  0x98, 0xb9, 0x87, 0x3d, 0xce, 0x42, 0xd4, 0x3e, 0x75, 0xda, 0xa1, 0xbe, 
  0x49, 0x5f, 0xa7, 0x3e, 0x0e, 0x45, 0xa3, 0xbe, 0x3d, 0xb8, 0xcb, 0xbe, 
  0x8c, 0x18, 0x89, 0x3e, 0x1d, 0xb7, 0xa0, 0x3e, 0x2a, 0x3e, 0x67, 0xbe, 
  0xaa, 0x04, 0x08, 0x3e, 0x22, 0x74, 0x0e, 0x3e, 0xb8, 0xa6, 0x32, 0xbe, 
  0x50, 0xd1, 0x8c, 0xbe, 0xcb, 0x52, 0x32, 0xbf, 0x8a, 0xbd, 0xc0, 0x3e, 
  0x97, 0xb3, 0xc7, 0xbe, 0xc0, 0x79, 0x58, 0xbe, 0x93, 0x08, 0xd4, 0x3e, 
  0x6f, 0x30, 0xd0, 0x3e, 0x8f, 0x66, 0xd8, 0x3e, 0x11, 0xcf, 0xb7, 0x3e, 
  0x57, 0x16, 0xbd, 0x3e, 0x3a, 0x63, 0x94, 0xbe, 0x44, 0x92, 0x7b, 0x3e, 
  0xd4, 0x04, 0xad, 0x3e, 0xce, 0x76, 0x5e, 0xbe, 0xfe, 0x1f, 0x36, 0xbe, 
  0xed, 0xf3, 0xb6, 0x3e, 0x92, 0x6a, 0xad, 0x3e, 0x0b, 0x26, 0x80, 0xbf, 
  0xdc, 0x14, 0xc4, 0xbe, 0x03, 0xb1, 0x58, 0xbe, 0x95, 0xaa, 0x85, 0x3e, 
  0x9e, 0xb1, 0xc1, 0xbe, 0x15, 0x6b, 0xc6, 0x3e, 0x5a, 0x94, 0x4c, 0x3e, 
  0x17, 0x94, 0x12, 0xbf, 0xac, 0xfc, 0x9f, 0xbd, 0x7c, 0xdd, 0x91, 0x3e, 
  0x82, 0x9e, 0xf7, 0xbe, 0x2f, 0x61, 0x35, 0x3e, 0x59, 0xef, 0xc0, 0x3e, 
  0x1e, 0x66, 0x1f, 0xbe, 0x5b, 0x92, 0xd7, 0x3e, 0xa9, 0x8b, 0x0e, 0xbf, 
  0xcd, 0xee, 0xe0, 0x3e, 0xfb, 0x77, 0x2d, 0xbf, 0x88, 0x48, 0xb6, 0xbe, 
  0x40, 0x34, 0xfd, 0xbc, 0x53, 0x23, 0x06, 0xbe, 0x76, 0x50, 0x3a, 0x3e, 
  0xd2, 0x78, 0x96, 0xbe, 0x75, 0xc6, 0x85, 0xbe, 0xf7, 0xf1, 0xb1, 0x3e, 
  0xa4, 0x81, 0x67, 0x3e, 0xce, 0x84, 0x0c, 0xbf, 0x6a, 0x22, 0x0c, 0x3e, 
  0xa4, 0xbd, 0xcc, 0x3d, 0x8e, 0x57, 0x46, 0xbe, 0xcb, 0x84, 0x92, 0x3e, 
  0x49, 0x05, 0xf3, 0xbe, 0xf8, 0xc2, 0x40, 0xbd, 0xc5, 0xa5, 0xf7, 0x3d, 
  0xb2, 0xc8, 0x34, 0xbe, 0x66, 0x95, 0x5c, 0x3e, 0x31, 0x2e, 0x8f, 0x3d, 
  0xe1, 0xe2, 0xaf, 0x3e, 0x3d, 0xb8, 0xac, 0x3e, 0x71, 0x61, 0x31, 0x3e, 
  0x27, 0x4b, 0x93, 0x3e, 0xb3, 0x5e, 0x90, 0x3e, 0x7f, 0xc4, 0x72, 0xbe, 
  0xa1, 0x90, 0xb7, 0x3d, 0x20, 0x9b, 0x04, 0xbd, 0xae, 0x67, 0x40, 0x3e, 
  0x00, 0xc0, 0x68, 0xb9, 0xcf, 0xe9, 0x57, 0x3c, 0x16, 0x8f, 0x9e, 0xbf, 
  0x43, 0x31, 0x3a, 0xbe, 0x20, 0xd8, 0xe5, 0x3c, 0x15, 0x28, 0xd2, 0xbe, 
  0xa5, 0x20, 0xab, 0x3e, 0x7d, 0xc8, 0xd0, 0x3e, 0x5f, 0xf6, 0xb5, 0x3e, 
  0xf6, 0x0f, 0xec, 0x3d, 0xb1, 0xfe, 0x8c, 0x3e, 0xde, 0xf3, 0x8a, 0x3e, 
  0xfd, 0x91, 0xaf, 0xbe, 0x15, 0xbe, 0x84, 0x3e, 0x64, 0x58, 0xf8, 0x3d, 
  0x00, 0x04, 0xad, 0xbb, 0xae, 0xcf, 0x1d, 0x3e, 0xbc, 0x8a, 0x7a, 0x3e, 
  0xd5, 0xae, 0x44, 0x3f, 0xd4, 0x5b, 0x8a, 0xbe, 0x65, 0x60, 0xcc, 0xbe, 
  0x9e, 0xe7, 0x48, 0x3e, 0xe4, 0x00, 0x80, 0xbf, 0x7f, 0xb8, 0x5d, 0xbe, 
  0xae, 0x98, 0x87, 0xbe, 0x90, 0xc8, 0x39, 0x3d, 0x9e, 0x99, 0x7a, 0xbe, 
  0x37, 0x8f, 0x41, 0x3e, 0x8b, 0xff, 0xcc, 0xbe, 0x9b, 0x9b, 0xa2, 0xbe, 
  0x7d, 0x63, 0xa4, 0xbe, 0x64, 0x77, 0x84, 0x3d, 0xa0, 0xa8, 0x36, 0x3c, 
  0x1c, 0xee, 0xb3, 0xbd, 0x00, 0xc8, 0xf8, 0xbd, 0xce, 0xfb, 0x15, 0x3e, 
  0x9d, 0x34, 0xbe, 0x3e, 0x2c, 0x99, 0xa4, 0xbd, 0x44, 0xda, 0x36, 0xbf, 
  0xe5, 0xec, 0x89, 0x3e, 0xb3, 0x12, 0xca, 0xbe, 0xfa, 0x51, 0x93, 0xbd, 
  0x40, 0x5c, 0x07, 0xbc, 0xdc, 0xa8, 0xb6, 0xbd, 0x94, 0x37, 0x59, 0xbe, 
  0x54, 0xce, 0xe0, 0xbd, 0x30, 0xba, 0xf5, 0xbd, 0x83, 0xec, 0x92, 0xbe, 
  0x8c, 0x5d, 0xf9, 0x3d, 0x44, 0xe1, 0x1b, 0xbd, 0x57, 0x98, 0x32, 0x3e, 
  0xe4, 0xb0, 0x1c, 0xbe, 0xb4, 0xd1, 0xae, 0xbd, 0xcf, 0xf6, 0x9f, 0x3e, 
  0xb8, 0x5f, 0x92, 0x3d, 0x19, 0x5f, 0xb0, 0x3e, 0x42, 0xc8, 0xc8, 0xbe, 
  0xd2, 0xb3, 0xbf, 0x3e, 0x28, 0x7f, 0xa5, 0xbd, 0x8b, 0x86, 0x9e, 0xbd, 
  0x11, 0xf6, 0xcc, 0x3e, 0x71, 0x00, 0xb9, 0x3c, 0x4e, 0x8b, 0xd4, 0xbe, 
  0xb3, 0xb6, 0xa8, 0x3e, 0xd0, 0xda, 0x17, 0x3d, 0x9a, 0x99, 0xb9, 0xbd, 
  0x80, 0xbd, 0xc7, 0x3e, 0x23, 0xac, 0x6c, 0x3e, 0x18, 0x35, 0xb7, 0xbe, 
  0xa0, 0xce, 0xe8, 0xbd, 0xca, 0x79, 0xce, 0x3c, 0x02, 0x89, 0x22, 0x3e, 
  0x6c, 0x89, 0x41, 0xbe, 0x2e, 0x83, 0x6a, 0x3e, 0xef, 0x50, 0x8c, 0xbe, 
  0xc9, 0xa5, 0x6d, 0x3e, 0x24, 0x77, 0x2f, 0x3e, 0xce, 0x38, 0x96, 0x3e, 
  0x91, 0xb9, 0xa0, 0x3e, 0x41, 0xb7, 0xaa, 0x3e, 0xb7, 0xa6, 0xb1, 0xbe, 
  0x79, 0xc7, 0x64, 0xbe, 0x25, 0x1d, 0x84, 0x3f, 0x3a, 0x04, 0xa2, 0xbe, 
  0xb2, 0xd2, 0x43, 0x3e, 0x38, 0xb1, 0x01, 0xbe, 0x68, 0xe2, 0x2b, 0xbe, 
  0x98, 0xec, 0xb3, 0xbd, 0x76, 0xb0, 0x56, 0xbe, 0x20, 0x9e, 0xa6, 0xbe, 
  0x02, 0x88, 0xb0, 0xbe, 0x29, 0xab, 0xde, 0x3e, 0x1e, 0x5e, 0xb3, 0x3e, 
  0x68, 0xc0, 0x62, 0x3e, 0x2b, 0x06, 0x93, 0x3e, 0xb8, 0x97, 0x6f, 0x3d, 
  0xaf, 0x29, 0x49, 0xbe, 0x04, 0x5b, 0xcb, 0xbe, 0x2d, 0xc2, 0x94, 0xbf, 
  0x09, 0x05, 0xff, 0x3d, 0x28, 0xe0, 0x09, 0x3d, 0x88, 0xf3, 0x19, 0x3d, 
  0x15, 0xfb, 0xb5, 0xbe, 0x00, 0xde, 0xad, 0xbc, 0x8e, 0xdc, 0x1d, 0x3e, 
  0xc1, 0xca, 0x11, 0xbe, 0x72, 0x6e, 0x4a, 0xbe, 0xb1, 0x39, 0x0f, 0x3f, 
  0xd5, 0xcc, 0xd7, 0xbe, 0x37, 0xbc, 0x09, 0x3f, 0x76, 0xa7, 0x23, 0x3e, 
  0x18, 0xb6, 0x9b, 0xbe, 0xb0, 0x8e, 0x9d, 0xbc, 0xac, 0xe2, 0x3e, 0xbf, 
  0xb6, 0x8a, 0x83, 0xbe, 0xe1, 0x2b, 0xf1, 0xbe, 0xc0, 0xc5, 0xdb, 0xbc, 
  0x93, 0x22, 0xb3, 0xbe, 0x47, 0x70, 0xa5, 0x3e, 0x5c, 0x0b, 0xb0, 0xbd, 
  0xc4, 0x1e, 0xaf, 0xbe, 0x0a, 0xce, 0x3a, 0xbf, 0x5b, 0x98, 0x52, 0xbe, 
  0xea, 0x10, 0x8d, 0x3e, 0xef, 0xd2, 0xf2, 0xbe, 0xc1, 0x17, 0xde, 0xbe, 
  0x98, 0x47, 0x0b, 0xbe, 0x14, 0x7e, 0x8f, 0xbe, 0x46, 0x2b, 0x3d, 0x3e, 
  0x24, 0x70, 0x81, 0x3d, 0x8e, 0x65, 0x7a, 0x3e, 0xc3, 0xfa, 0x78, 0xbf, 
  0x35, 0xdc, 0xc9, 0x3e, 0x7c, 0xfc, 0x84, 0xbe, 0x62, 0xec, 0xdb, 0x3e, 
  0xdd, 0x76, 0x7e, 0xbe, 0xca, 0xaf, 0x52, 0xbe, 0x1a, 0xd6, 0x18, 0xbe, 
  0x1c, 0x68, 0x89, 0xbd, 0xbf, 0xbd, 0x3d, 0x3c, 0x67, 0xd1, 0xbf, 0xbd, 
  0x35, 0x0a, 0xfa, 0x3b, 0x4e, 0x81, 0xc9, 0xbe, 0xfa, 0x51, 0x40, 0xbe, 
  0x7e, 0x43, 0x0d, 0x3e, 0x07, 0x08, 0x0b, 0x3e, 0x3c, 0x90, 0x9b, 0xbe, 
  0xe2, 0xc8, 0x4e, 0x3e, 0x3e, 0xac, 0x6d, 0x3e, 0x89, 0xb9, 0x8c, 0x3e, 
  0x00, 0x00, 0x06, 0x00, 0x08, 0x00, 0x04, 0x00, 0x06, 0x00, 0x00, 0x00, 
  0x04, 0x00, 0x00, 0x00, 0x40, 0x00, 0x00, 0x00, 0x2e, 0x6c, 0x94, 0x3e, 
  0x3d, 0x01, 0x21, 0x3f, 0x12, 0xd2, 0x0e, 0xbf, 0x48, 0x3b, 0x91, 0xbe, 
  0xcd, 0xa9, 0x34, 0xbf, 0xd6, 0xbb, 0x96, 0xbf, 0x0a, 0xe8, 0xc9, 0xbe, 
  0xdc, 0xc8, 0x39, 0x3e, 0x9c, 0xf7, 0x37, 0xbf, 0x84, 0x93, 0x8e, 0xbf, 
  0xd3, 0xbd, 0x66, 0x3e, 0x95, 0x73, 0xad, 0x3e, 0xfd, 0x3f, 0x88, 0xbe, 
  0xbc, 0x57, 0x0a, 0x40, 0x77, 0xb3, 0x40, 0x3f, 0x39, 0x7c, 0x98, 0xbd, 
  0x38, 0xfb, 0xff, 0xff, 0x3c, 0xfb, 0xff, 0xff, 0x0f, 0x00, 0x00, 0x00, 
  0x4d, 0x4c, 0x49, 0x52, 0x20, 0x43, 0x6f, 0x6e, 0x76, 0x65, 0x72, 0x74, 
  0x65, 0x64, 0x2e, 0x00, 0x01, 0x00, 0x00, 0x00, 0x14, 0x00, 0x00, 0x00, 
  0x00, 0x00, 0x0e, 0x00, 0x18, 0x00, 0x14, 0x00, 0x10, 0x00, 0x0c, 0x00, 
  0x08, 0x00, 0x04, 0x00, 0x0e, 0x00, 0x00, 0x00, 0x14, 0x00, 0x00, 0x00, 
  0x1c, 0x00, 0x00, 0x00, 0xd8, 0x00, 0x00, 0x00, 0xdc, 0x00, 0x00, 0x00, 
  0xe0, 0x00, 0x00, 0x00, 0x04, 0x00, 0x00, 0x00, 0x6d, 0x61, 0x69, 0x6e, 
  0x00, 0x00, 0x00, 0x00, 0x03, 0x00, 0x00, 0x00, 0x80, 0x00, 0x00, 0x00, 
  0x38, 0x00, 0x00, 0x00, 0x04, 0x00, 0x00, 0x00, 0x9a, 0xff, 0xff, 0xff, 
  0x10, 0x00, 0x00, 0x00, 0x00, 0x00, 0x00, 0x08, 0x0c, 0x00, 0x00, 0x00, 
  0x10, 0x00, 0x00, 0x00, 0xb4, 0xfb, 0xff, 0xff, 0x01, 0x00, 0x00, 0x00, 
  0x09, 0x00, 0x00, 0x00, 0x03, 0x00, 0x00, 0x00, 0x08, 0x00, 0x00, 0x00, 
  0x01, 0x00, 0x00, 0x00, 0x03, 0x00, 0x00, 0x00, 0xca, 0xff, 0xff, 0xff, 
  0x10, 0x00, 0x00, 0x00, 0x00, 0x00, 0x00, 0x08, 0x10, 0x00, 0x00, 0x00, 
  0x14, 0x00, 0x00, 0x00, 0xba, 0xff, 0xff, 0xff, 0x00, 0x00, 0x00, 0x01, 
  0x01, 0x00, 0x00, 0x00, 0x08, 0x00, 0x00, 0x00, 0x03, 0x00, 0x00, 0x00, 
  0x07, 0x00, 0x00, 0x00, 0x02, 0x00, 0x00, 0x00, 0x04, 0x00, 0x00, 0x00, 
  0x00, 0x00, 0x0e, 0x00, 0x16, 0x00, 0x00, 0x00, 0x10, 0x00, 0x0c, 0x00, 
  0x0b, 0x00, 0x04, 0x00, 0x0e, 0x00, 0x00, 0x00, 0x18, 0x00, 0x00, 0x00, 
  0x00, 0x00, 0x00, 0x08, 0x18, 0x00, 0x00, 0x00, 0x1c, 0x00, 0x00, 0x00, 
  0x00, 0x00, 0x06, 0x00, 0x08, 0x00, 0x07, 0x00, 0x06, 0x00, 0x00, 0x00, 
  0x00, 0x00, 0x00, 0x01, 0x01, 0x00, 0x00, 0x00, 0x07, 0x00, 0x00, 0x00, 
  0x03, 0x00, 0x00, 0x00, 0x00, 0x00, 0x00, 0x00, 0x06, 0x00, 0x00, 0x00, 
  0x05, 0x00, 0x00, 0x00, 0x01, 0x00, 0x00, 0x00, 0x09, 0x00, 0x00, 0x00, 
  0x01, 0x00, 0x00, 0x00, 0x00, 0x00, 0x00, 0x00, 0x0a, 0x00, 0x00, 0x00, 
  0x74, 0x03, 0x00, 0x00, 0x1c, 0x03, 0x00, 0x00, 0xc4, 0x02, 0x00, 0x00, 
  0x88, 0x02, 0x00, 0x00, 0x4c, 0x02, 0x00, 0x00, 0xf0, 0x01, 0x00, 0x00, 
  0xa0, 0x01, 0x00, 0x00, 0x00, 0x01, 0x00, 0x00, 0x60, 0x00, 0x00, 0x00, 
  0x04, 0x00, 0x00, 0x00, 0xca, 0xfc, 0xff, 0xff, 0x00, 0x00, 0x00, 0x01, 
  0x14, 0x00, 0x00, 0x00, 0x1c, 0x00, 0x00, 0x00, 0x1c, 0x00, 0x00, 0x00, 
  0x0a, 0x00, 0x00, 0x00, 0x34, 0x00, 0x00, 0x00, 0x02, 0x00, 0x00, 0x00, 
  0xff, 0xff, 0xff, 0xff, 0x01, 0x00, 0x00, 0x00, 0xb4, 0xfc, 0xff, 0xff, 
  0x1b, 0x00, 0x00, 0x00, 0x53, 0x74, 0x61, 0x74, 0x65, 0x66, 0x75, 0x6c, 
  0x50, 0x61, 0x72, 0x74, 0x69, 0x74, 0x69, 0x6f, 0x6e, 0x65, 0x64, 0x43, 
  0x61, 0x6c, 0x6c, 0x5f, 0x31, 0x3a, 0x30, 0x00, 0x02, 0x00, 0x00, 0x00, 
  0x01, 0x00, 0x00, 0x00, 0x01, 0x00, 0x00, 0x00, 0x22, 0xfd, 0xff, 0xff, 
  0x00, 0x00, 0x00, 0x01, 0x14, 0x00, 0x00, 0x00, 0x1c, 0x00, 0x00, 0x00, 
  0x1c, 0x00, 0x00, 0x00, 0x09, 0x00, 0x00, 0x00, 0x78, 0x00, 0x00, 0x00, 
  0x02, 0x00, 0x00, 0x00, 0xff, 0xff, 0xff, 0xff, 0x10, 0x00, 0x00, 0x00, 
  0x0c, 0xfd, 0xff, 0xff, 0x5e, 0x00, 0x00, 0x00, 0x73, 0x65, 0x71, 0x75, 
  0x65, 0x6e, 0x74, 0x69, 0x61, 0x6c, 0x5f, 0x31, 0x5f, 0x31, 0x2f, 0x64, 
  0x65, 0x6e, 0x73, 0x65, 0x5f, 0x33, 0x5f, 0x31, 0x2f, 0x4d, 0x61, 0x74, 
  0x4d, 0x75, 0x6c, 0x3b, 0x73, 0x65, 0x71, 0x75, 0x65, 0x6e, 0x74, 0x69, 
  0x61, 0x6c, 0x5f, 0x31, 0x5f, 0x31, 0x2f, 0x64, 0x65, 0x6e, 0x73, 0x65, 
  0x5f, 0x33, 0x5f, 0x31, 0x2f, 0x52, 0x65, 0x6c, 0x75, 0x3b, 0x73, 0x65, 
  0x71, 0x75, 0x65, 0x6e, 0x74, 0x69, 0x61, 0x6c, 0x5f, 0x31, 0x5f, 0x31, 
  0x2f, 0x64, 0x65, 0x6e, 0x73, 0x65, 0x5f, 0x33, 0x5f, 0x31, 0x2f, 0x42, 
  0x69, 0x61, 0x73, 0x41, 0x64, 0x64, 0x00, 0x00, 0x02, 0x00, 0x00, 0x00, 
  0x01, 0x00, 0x00, 0x00, 0x10, 0x00, 0x00, 0x00, 0xbe, 0xfd, 0xff, 0xff, 
  0x00, 0x00, 0x00, 0x01, 0x14, 0x00, 0x00, 0x00, 0x1c, 0x00, 0x00, 0x00, 
  0x1c, 0x00, 0x00, 0x00, 0x08, 0x00, 0x00, 0x00, 0x78, 0x00, 0x00, 0x00, 
  0x02, 0x00, 0x00, 0x00, 0xff, 0xff, 0xff, 0xff, 0x10, 0x00, 0x00, 0x00, 
  0xa8, 0xfd, 0xff, 0xff, 0x5e, 0x00, 0x00, 0x00, 0x73, 0x65, 0x71, 0x75, 
  0x65, 0x6e, 0x74, 0x69, 0x61, 0x6c, 0x5f, 0x31, 0x5f, 0x31, 0x2f, 0x64, 
  0x65, 0x6e, 0x73, 0x65, 0x5f, 0x32, 0x5f, 0x31, 0x2f, 0x4d, 0x61, 0x74, 
  0x4d, 0x75, 0x6c, 0x3b, 0x73, 0x65, 0x71, 0x75, 0x65, 0x6e, 0x74, 0x69, 
  0x61, 0x6c, 0x5f, 0x31, 0x5f, 0x31, 0x2f, 0x64, 0x65, 0x6e, 0x73, 0x65, 
  0x5f, 0x32, 0x5f, 0x31, 0x2f, 0x52, 0x65, 0x6c, 0x75, 0x3b, 0x73, 0x65, 
  0x71, 0x75, 0x65, 0x6e, 0x74, 0x69, 0x61, 0x6c, 0x5f, 0x31, 0x5f, 0x31, 
  0x2f, 0x64, 0x65, 0x6e, 0x73, 0x65, 0x5f, 0x32, 0x5f, 0x31, 0x2f, 0x42, 
  0x69, 0x61, 0x73, 0x41, 0x64, 0x64, 0x00, 0x00, 0x02, 0x00, 0x00, 0x00, 
  0x01, 0x00, 0x00, 0x00, 0x10, 0x00, 0x00, 0x00, 0xae, 0xfe, 0xff, 0xff, 
  0x00, 0x00, 0x00, 0x01, 0x10, 0x00, 0x00, 0x00, 0x10, 0x00, 0x00, 0x00, 
  0x07, 0x00, 0x00, 0x00, 0x2c, 0x00, 0x00, 0x00, 0x34, 0xfe, 0xff, 0xff, 
  0x1f, 0x00, 0x00, 0x00, 0x73, 0x65, 0x71, 0x75, 0x65, 0x6e, 0x74, 0x69, 
  0x61, 0x6c, 0x5f, 0x31, 0x5f, 0x31, 0x2f, 0x64, 0x65, 0x6e, 0x73, 0x65, 
  0x5f, 0x32, 0x5f, 0x31, 0x2f, 0x4d, 0x61, 0x74, 0x4d, 0x75, 0x6c, 0x00, 
  0x02, 0x00, 0x00, 0x00, 0x10, 0x00, 0x00, 0x00, 0x01, 0x00, 0x00, 0x00, 
  0xfa, 0xfe, 0xff, 0xff, 0x00, 0x00, 0x00, 0x01, 0x10, 0x00, 0x00, 0x00, 
  0x10, 0x00, 0x00, 0x00, 0x06, 0x00, 0x00, 0x00, 0x3c, 0x00, 0x00, 0x00, 
  0x80, 0xfe, 0xff, 0xff, 0x2f, 0x00, 0x00, 0x00, 0x73, 0x65, 0x71, 0x75, 
  0x65, 0x6e, 0x74, 0x69, 0x61, 0x6c, 0x5f, 0x31, 0x5f, 0x31, 0x2f, 0x64, 
  0x65, 0x6e, 0x73, 0x65, 0x5f, 0x32, 0x5f, 0x31, 0x2f, 0x42, 0x69, 0x61, 
  0x73, 0x41, 0x64, 0x64, 0x2f, 0x52, 0x65, 0x61, 0x64, 0x56, 0x61, 0x72, 
  0x69, 0x61, 0x62, 0x6c, 0x65, 0x4f, 0x70, 0x00, 0x01, 0x00, 0x00, 0x00, 
  0x10, 0x00, 0x00, 0x00, 0x52, 0xff, 0xff, 0xff, 0x00, 0x00, 0x00, 0x01, 
  0x10, 0x00, 0x00, 0x00, 0x10, 0x00, 0x00, 0x00, 0x05, 0x00, 0x00, 0x00, 
  0x1c, 0x00, 0x00, 0x00, 0xd8, 0xfe, 0xff, 0xff, 0x0f, 0x00, 0x00, 0x00, 
  0x61, 0x72, 0x69, 0x74, 0x68, 0x2e, 0x63, 0x6f, 0x6e, 0x73, 0x74, 0x61, 
  0x6e, 0x74, 0x33, 0x00, 0x01, 0x00, 0x00, 0x00, 0x10, 0x00, 0x00, 0x00, 
  0x8a, 0xff, 0xff, 0xff, 0x00, 0x00, 0x00, 0x01, 0x10, 0x00, 0x00, 0x00, 
  0x10, 0x00, 0x00, 0x00, 0x04, 0x00, 0x00, 0x00, 0x1c, 0x00, 0x00, 0x00, 
  0x10, 0xff, 0xff, 0xff, 0x0f, 0x00, 0x00, 0x00, 0x61, 0x72, 0x69, 0x74, 
  0x68, 0x2e, 0x63, 0x6f, 0x6e, 0x73, 0x74, 0x61, 0x6e, 0x74, 0x32, 0x00, 
  0x01, 0x00, 0x00, 0x00, 0x01, 0x00, 0x00, 0x00, 0xc2, 0xff, 0xff, 0xff, 
  0x00, 0x00, 0x00, 0x01, 0x10, 0x00, 0x00, 0x00, 0x10, 0x00, 0x00, 0x00, 
  0x03, 0x00, 0x00, 0x00, 0x1c, 0x00, 0x00, 0x00, 0x48, 0xff, 0xff, 0xff, 
  0x0f, 0x00, 0x00, 0x00, 0x61, 0x72, 0x69, 0x74, 0x68, 0x2e, 0x63, 0x6f, 
  0x6e, 0x73, 0x74, 0x61, 0x6e, 0x74, 0x31, 0x00, 0x02, 0x00, 0x00, 0x00, 
  0x10, 0x00, 0x00, 0x00, 0x10, 0x00, 0x00, 0x00, 0x00, 0x00, 0x16, 0x00, 
  0x18, 0x00, 0x14, 0x00, 0x00, 0x00, 0x10, 0x00, 0x0c, 0x00, 0x08, 0x00, 
  0x00, 0x00, 0x00, 0x00, 0x00, 0x00, 0x07, 0x00, 0x16, 0x00, 0x00, 0x00, 
  0x00, 0x00, 0x00, 0x01, 0x10, 0x00, 0x00, 0x00, 0x10, 0x00, 0x00, 0x00, 
  0x02, 0x00, 0x00, 0x00, 0x1c, 0x00, 0x00, 0x00, 0x9c, 0xff, 0xff, 0xff, 
  0x0e, 0x00, 0x00, 0x00, 0x61, 0x72, 0x69, 0x74, 0x68, 0x2e, 0x63, 0x6f, 
  0x6e, 0x73, 0x74, 0x61, 0x6e, 0x74, 0x00, 0x00, 0x02, 0x00, 0x00, 0x00, 
  0x01, 0x00, 0x00, 0x00, 0x10, 0x00, 0x00, 0x00, 0x00, 0x00, 0x16, 0x00, 
  0x1c, 0x00, 0x18, 0x00, 0x00, 0x00, 0x14, 0x00, 0x10, 0x00, 0x0c, 0x00, 
  0x00, 0x00, 0x00, 0x00, 0x08, 0x00, 0x07, 0x00, 0x16, 0x00, 0x00, 0x00, 
  0x00, 0x00, 0x00, 0x01, 0x14, 0x00, 0x00, 0x00, 0x20, 0x00, 0x00, 0x00, 
  0x20, 0x00, 0x00, 0x00, 0x01, 0x00, 0x00, 0x00, 0x40, 0x00, 0x00, 0x00, 
  0x02, 0x00, 0x00, 0x00, 0xff, 0xff, 0xff, 0xff, 0x01, 0x00, 0x00, 0x00, 
  0x04, 0x00, 0x04, 0x00, 0x04, 0x00, 0x00, 0x00, 0x20, 0x00, 0x00, 0x00, 
  0x73, 0x65, 0x72, 0x76, 0x69, 0x6e, 0x67, 0x5f, 0x64, 0x65, 0x66, 0x61, 
  0x75, 0x6c, 0x74, 0x5f, 0x6b, 0x65, 0x72, 0x61, 0x73, 0x5f, 0x74, 0x65, 
  0x6e, 0x73, 0x6f, 0x72, 0x5f, 0x33, 0x3a, 0x30, 0x00, 0x00, 0x00, 0x00, 
  0x02, 0x00, 0x00, 0x00, 0x01, 0x00, 0x00, 0x00, 0x01, 0x00, 0x00, 0x00, 
  0x01, 0x00, 0x00, 0x00, 0x10, 0x00, 0x00, 0x00, 0x0c, 0x00, 0x0c, 0x00, 
  0x0b, 0x00, 0x00, 0x00, 0x00, 0x00, 0x04, 0x00, 0x0c, 0x00, 0x00, 0x00, 
  0x09, 0x00, 0x00, 0x00, 0x00, 0x00, 0x00, 0x09, 
};
const unsigned int model_float_tflite_len = 3164;
