const unsigned char model_float_tflite[] = {
  0x1c, 0x00, 0x00, 0x00, 0x54, 0x46, 0x4c, 0x33, 0x14, 0x00, 0x20, 0x00, 
  0x1c, 0x00, 0x18, 0x00, 0x14, 0x00, 0x10, 0x00, 0x0c, 0x00, 0x00, 0x00, 
  0x08, 0x00, 0x04, 0x00, 0x14, 0x00, 0x00, 0x00, 0x1c, 0x00, 0x00, 0x00, 
  0x98, 0x00, 0x00, 0x00, 0xf0, 0x00, 0x00, 0x00, 0x14, 0x07, 0x00, 0x00, 
  0x24, 0x07, 0x00, 0x00, 0x08, 0x0c, 0x00, 0x00, 0x03, 0x00, 0x00, 0x00, 
  0x01, 0x00, 0x00, 0x00, 0x10, 0x00, 0x00, 0x00, 0x00, 0x00, 0x0a, 0x00, 
  0x10, 0x00, 0x0c, 0x00, 0x08, 0x00, 0x04, 0x00, 0x0a, 0x00, 0x00, 0x00, 
  0x0c, 0x00, 0x00, 0x00, 0x1c, 0x00, 0x00, 0x00, 0x3c, 0x00, 0x00, 0x00, 
  0x0f, 0x00, 0x00, 0x00, 0x73, 0x65, 0x72, 0x76, 0x69, 0x6e, 0x67, 0x5f, 
  0x64, 0x65, 0x66, 0x61, 0x75, 0x6c, 0x74, 0x00, 0x01, 0x00, 0x00, 0x00, 
  0x04, 0x00, 0x00, 0x00, 0x90, 0xff, 0xff, 0xff, 0x09, 0x00, 0x00, 0x00, 
  0x04, 0x00, 0x00, 0x00, 0x08, 0x00, 0x00, 0x00, 0x6f, 0x75, 0x74, 0x70, 
  0x75, 0x74, 0x5f, 0x30, 0x00, 0x00, 0x00, 0x00, 0x01, 0x00, 0x00, 0x00, 
  0x04, 0x00, 0x00, 0x00, 0xba, 0xf9, 0xff, 0xff, 0x04, 0x00, 0x00, 0x00, 
  0x0e, 0x00, 0x00, 0x00, 0x6b, 0x65, 0x72, 0x61, 0x73, 0x5f, 0x74, 0x65, 
  0x6e, 0x73, 0x6f, 0x72, 0x5f, 0x33, 0x00, 0x00, 0x02, 0x00, 0x00, 0x00, 
  0x34, 0x00, 0x00, 0x00, 0x04, 0x00, 0x00, 0x00, 0xdc, 0xff, 0xff, 0xff, 
  0x0c, 0x00, 0x00, 0x00, 0x04, 0x00, 0x00, 0x00, 0x13, 0x00, 0x00, 0x00, 
  0x43, 0x4f, 0x4e, 0x56, 0x45, 0x52, 0x53, 0x49, 0x4f, 0x4e, 0x5f, 0x4d, 
  0x45, 0x54, 0x41, 0x44, 0x41, 0x54, 0x41, 0x00, 0x08, 0x00, 0x0c, 0x00, 
  0x08, 0x00, 0x04, 0x00, 0x08, 0x00, 0x00, 0x00, 0x0b, 0x00, 0x00, 0x00, 
  0x04, 0x00, 0x00, 0x00, 0x13, 0x00, 0x00, 0x00, 0x6d, 0x69, 0x6e, 0x5f, 
  0x72, 0x75, 0x6e, 0x74, 0x69, 0x6d, 0x65, 0x5f, 0x76, 0x65, 0x72, 0x73, 
  0x69, 0x6f, 0x6e, 0x00, 0x0d, 0x00, 0x00, 0x00, 0x20, 0x06, 0x00, 0x00, 
  0x18, 0x06, 0x00, 0x00, 0xc8, 0x05, 0x00, 0x00, 0xb0, 0x01, 0x00, 0x00, 
  0x9c, 0x01, 0x00, 0x00, 0x4c, 0x01, 0x00, 0x00, 0xfc, 0x00, 0x00, 0x00, 
  0xac, 0x00, 0x00, 0x00, 0xa4, 0x00, 0x00, 0x00, 0x9c, 0x00, 0x00, 0x00, 
  0x94, 0x00, 0x00, 0x00, 0x74, 0x00, 0x00, 0x00, 0x04, 0x00, 0x00, 0x00, 
  0x6a, 0xfa, 0xff, 0xff, 0x04, 0x00, 0x00, 0x00, 0x60, 0x00, 0x00, 0x00, 
  0x10, 0x00, 0x00, 0x00, 0x00, 0x00, 0x00, 0x00, 0x08, 0x00, 0x0e, 0x00, 
  0x08, 0x00, 0x04, 0x00, 0x08, 0x00, 0x00, 0x00, 0x10, 0x00, 0x00, 0x00, 
  0x24, 0x00, 0x00, 0x00, 0x00, 0x00, 0x06, 0x00, 0x08, 0x00, 0x04, 0x00, 
  0x06, 0x00, 0x00, 0x00, 0x04, 0x00, 0x00, 0x00, 0x00, 0x00, 0x00, 0x00, 
  0x0c, 0x00, 0x18, 0x00, 0x14, 0x00, 0x10, 0x00, 0x0c, 0x00, 0x04, 0x00, 
  0x0c, 0x00, 0x00, 0x00, 0x81, 0x83, 0x3c, 0x81, 0xe8, 0x66, 0xe1, 0x77, 
  0x02, 0x00, 0x00, 0x00, 0x02, 0x00, 0x00, 0x00, 0x04, 0x00, 0x00, 0x00, 
  0x06, 0x00, 0x00, 0x00, 0x32, 0x2e, 0x31, 0x37, 0x2e, 0x30, 0x00, 0x00, 
  0xd6, 0xfa, 0xff, 0xff, 0x04, 0x00, 0x00, 0x00, 0x10, 0x00, 0x00, 0x00, 
  0x31, 0x2e, 0x35, 0x2e, 0x30, 0x00, 0x00, 0x00, 0x00, 0x00, 0x00, 0x00, 
  0x00, 0x00, 0x00, 0x00, 0xd8, 0xf5, 0xff, 0xff, 0xdc, 0xf5, 0xff, 0xff, 
  0xe0, 0xf5, 0xff, 0xff, 0xfe, 0xfa, 0xff, 0xff, 0x04, 0x00, 0x00, 0x00, 
  0x40, 0x00, 0x00, 0x00, 0x11, 0x73, 0x0b, 0x3f, 0xc6, 0x5c, 0xb7, 0xbe, 
  0xa1, 0x2b, 0x97, 0x3e, 0xfc, 0x4e, 0xf3, 0xbd, 0xde, 0x20, 0x21, 0xbe, 
  0xf9, 0xe8, 0x07, 0x3f, 0x70, 0x6a, 0xac, 0x3e, 0x4b, 0x76, 0xa3, 0x3e, 
  0xb2, 0x58, 0xca, 0xbe, 0xfe, 0x6d, 0xeb, 0x3e, 0xc3, 0xe5, 0x3c, 0x3e, 
  0xcb, 0xe5, 0xa8, 0x3d, 0x6c, 0x32, 0x89, 0xbe, 0xb8, 0x3f, 0xde, 0xbd, 
  0x9a, 0x54, 0x43, 0x3e, 0x8e, 0xd0, 0x60, 0x3e, 0x4a, 0xfb, 0xff, 0xff, 
  0x04, 0x00, 0x00, 0x00, 0x40, 0x00, 0x00, 0x00, 0x3c, 0xa5, 0xc4, 0xbd, 
  0x00, 0x00, 0x00, 0x00, 0x9a, 0x13, 0xd0, 0x3d, 0x00, 0x00, 0x00, 0x00, 
  0x00, 0x00, 0x00, 0x00, 0x87, 0x6a, 0x00, 0xbf, 0x75, 0xf8, 0x3c, 0x3f, 
  0xec, 0x17, 0x04, 0xbf, 0x00, 0x00, 0x00, 0x00, 0x7d, 0x08, 0xea, 0xbe, 
  0x18, 0xdc, 0x09, 0xbf, 0xf2, 0x67, 0xa3, 0x3f, 0x00, 0x00, 0x00, 0x00, 
  0x00, 0x00, 0x00, 0x00, 0x77, 0x43, 0x41, 0xbc, 0xb0, 0x2a, 0x0c, 0x3f, 
  0x96, 0xfb, 0xff, 0xff, 0x04, 0x00, 0x00, 0x00, 0x40, 0x00, 0x00, 0x00, 
  0xad, 0xdf, 0x95, 0x3e, 0x2f, 0xfd, 0xcf, 0xbe, 0x00, 0x00, 0x00, 0x00, 
  0x00, 0x00, 0x00, 0x00, 0x00, 0x00, 0x00, 0x00, 0x62, 0xed, 0xb6, 0x3e, 
  0x6e, 0xa8, 0xd1, 0x3e, 0xa9, 0xf2, 0x20, 0xbd, 0xe3, 0x94, 0x82, 0x3e, 
  0xb3, 0x55, 0xc3, 0xbe, 0x91, 0x40, 0xb6, 0xbc, 0x6b, 0xe8, 0xff, 0xbc, 
  0xc7, 0x9f, 0x33, 0x3f, 0xb1, 0x8e, 0x99, 0x3e, 0x0f, 0x7a, 0xda, 0x3e, 
  0x3b, 0x0d, 0xc4, 0xbe, 0xe2, 0xfb, 0xff, 0xff, 0x04, 0x00, 0x00, 0x00, 
  0x04, 0x00, 0x00, 0x00, 0xe1, 0x2d, 0xca, 0xbe, 0xf2, 0xfb, 0xff, 0xff, 
  0x04, 0x00, 0x00, 0x00, 0x00, 0x04, 0x00, 0x00, 0xe9, 0x86, 0xbc, 0x3d, 
  0x46, 0x22, 0x58, 0x3e, 0xf3, 0xfc, 0x78, 0xbe, 0x0b, 0x63, 0x85, 0x3e, 
  0x28, 0x29, 0x62, 0xbd, 0xfb, 0xa7, 0x04, 0xbf, 0xa7, 0x58, 0x6f, 0x3e, 
  0x6a, 0xdc, 0x21, 0xbf, 0x7f, 0xfd, 0xa2, 0xbe, 0xfd, 0x73, 0x7a, 0xbd, 
  0x85, 0x15, 0x45, 0xbf, 0xff, 0xd5, 0xbe, 0x3e, 0x16, 0xb7, 0x6e, 0x3e, 
  0xa0, 0xdb, 0x24, 0xbc, 0x4c, 0x51, 0xb5, 0x3e, 0x19, 0xd5, 0x3d, 0x3e, 
  0xf6, 0xd5, 0xba, 0xbe, 0xef, 0x97, 0x7e, 0xbe, 0x28, 0xfc, 0x24, 0x3e, 
  0x9e, 0xc3, 0x12, 0xbe, 0x54, 0x7e, 0xcc, 0xbe, 0xb2, 0x6d, 0xd2, 0x3e, 
  0xde, 0xfb, 0x39, 0xbd, 0xe1, 0xc2, 0xed, 0x3e, 0xef, 0xb3, 0x79, 0xbe, 
  0xf8, 0x2f, 0xae, 0x3e, 0x7f, 0xf2, 0x68, 0x3e, 0xed, 0xea, 0x87, 0xbd, 
  0x08, 0x50, 0xc0, 0xbd, 0x0c, 0x19, 0xa3, 0x3d, 0x86, 0x8e, 0x8f, 0x3e, 
  0x7b, 0xc0, 0x81, 0x3e, 0x28, 0x3a, 0x91, 0xbe, 0xf7, 0xce, 0x5c, 0xbe, 
  0x50, 0x24, 0xb4, 0x3c, 0xb0, 0xdd, 0x15, 0xbd, 0xc0, 0x27, 0xe9, 0xbc, 
  0x52, 0xb7, 0x23, 0x3e, 0x9c, 0xe1, 0xe2, 0x3d, 0x79, 0x59, 0xd5, 0xbe, 
  0x3f, 0x67, 0x9c, 0x3e, 0x90, 0xc9, 0x33, 0xbd, 0x68, 0xe4, 0x61, 0xbd, 
  0x84, 0x00, 0x74, 0xbe, 0x6a, 0xd8, 0x1e, 0xbe, 0x20, 0x80, 0x02, 0xbd, 
  0x21, 0x12, 0xb2, 0x3e, 0xf4, 0x85, 0xda, 0xbe, 0x7b, 0xd4, 0xb4, 0xbe, 
  0x63, 0x94, 0x71, 0xbe, 0x92, 0x99, 0x9e, 0xbe, 0xe0, 0xaa, 0x79, 0xbc, 
  0x48, 0xeb, 0x3c, 0x3d, 0xb0, 0x4d, 0xc9, 0xbc, 0x34, 0xf3, 0x88, 0x3d, 
  0x8e, 0xb2, 0xd0, 0xbe, 0x5b, 0x35, 0x89, 0x3e, 0x8b, 0xfa, 0x90, 0x3e, 
  0xb4, 0x01, 0x33, 0xbe, 0x2e, 0x1c, 0x8b, 0xbe, 0x20, 0x20, 0x48, 0xbd, 
  0x00, 0xec, 0x72, 0xbc, 0x0c, 0x2d, 0x9c, 0x3d, 0xe7, 0xf9, 0xa3, 0xbe, 
  0x10, 0x56, 0x0c, 0xbe, 0x05, 0x01, 0x80, 0xbe, 0x4a, 0xcd, 0x28, 0x3e, 
  0x0a, 0x61, 0x38, 0x3e, 0x70, 0x96, 0x4b, 0xbe, 0x70, 0x4e, 0x87, 0xbc, 
  0xb0, 0x70, 0x78, 0xbe, 0xb1, 0xa3, 0x42, 0xbe, 0x14, 0x95, 0xa8, 0xbe, 
  0x90, 0xa0, 0x12, 0x3d, 0xcb, 0x20, 0xd8, 0xbe, 0x31, 0xd5, 0xcd, 0xbe, 
  0x30, 0x6e, 0xc2, 0xbe, 0xac, 0x69, 0xa5, 0xbd, 0x4a, 0xca, 0x17, 0x3e, 
  0x8c, 0x2f, 0xc8, 0x3d, 0x60, 0xf1, 0xde, 0xbe, 0x6e, 0xee, 0x22, 0x3e, 
  0x12, 0x7b, 0x52, 0xbe, 0x67, 0x2b, 0x9a, 0x3e, 0xcc, 0xcf, 0x60, 0xbe, 
  0xa1, 0x43, 0x99, 0xbe, 0x68, 0x2d, 0xe5, 0x3e, 0x42, 0xf5, 0xc8, 0xbe, 
  0xd0, 0x76, 0xa5, 0xbd, 0xa2, 0xc8, 0x4c, 0xbe, 0x98, 0xc6, 0x87, 0xbe, 
  0xec, 0xb7, 0xe2, 0x3e, 0xf0, 0xa9, 0x2f, 0xbe, 0xa5, 0xf3, 0xb9, 0x3e, 
  0x8b, 0xde, 0x2e, 0x3d, 0x63, 0x71, 0xd2, 0x3e, 0x7c, 0xe4, 0x4e, 0x3e, 
  0xee, 0x64, 0x1e, 0xbe, 0xbf, 0x9f, 0x0c, 0xbe, 0x4d, 0x6b, 0xb4, 0x3e, 
  0x2f, 0x51, 0xc3, 0x3e, 0xd2, 0xed, 0x5c, 0x3e, 0x6a, 0x4b, 0x96, 0x3e, 
  0x2d, 0x2c, 0x9c, 0x3e, 0xb8, 0xe4, 0x26, 0xbd, 0xf0, 0x79, 0xc7, 0xbe, 
  0xdf, 0x39, 0x01, 0xbf, 0x28, 0x3a, 0xc9, 0x3e, 0x4b, 0x0c, 0xd5, 0x3e, 
  0x74, 0x35, 0x12, 0xbe, 0x43, 0xe0, 0x17, 0xbe, 0x13, 0xda, 0xe5, 0x3e, 
  0xd8, 0x7f, 0x8d, 0xbe, 0x76, 0xdf, 0x51, 0x3e, 0xfc, 0x1b, 0xd7, 0xbe, 
  0xcf, 0x55, 0x94, 0x3e, 0x88, 0xbb, 0x84, 0xbd, 0x28, 0x80, 0xcf, 0xbe, 
  0x0a, 0x2a, 0x6c, 0xbe, 0x4c, 0xef, 0x12, 0xbe, 0xe0, 0x5a, 0x08, 0xbd, 
  0x25, 0x86, 0x31, 0x3d, 0x1c, 0x1b, 0xe6, 0x3d, 0x7f, 0x7f, 0x86, 0x3e, 
  0xa4, 0xf3, 0x1a, 0xbe, 0xb8, 0xfe, 0xa7, 0xbd, 0x74, 0x54, 0x91, 0x3d, 
  0x2f, 0x0d, 0xd0, 0xbe, 0x5b, 0xaf, 0x0a, 0xbe, 0x51, 0xe2, 0xae, 0x3e, 
  0xda, 0x8c, 0x68, 0x3e, 0xc5, 0x6c, 0xa1, 0xbe, 0xd5, 0x0a, 0x56, 0xbe, 
  0x1a, 0xb9, 0x88, 0xbe, 0x45, 0xd1, 0xa3, 0x3e, 0xc4, 0x6a, 0x08, 0xbf, 
  0x57, 0x45, 0x5a, 0xbe, 0x71, 0xeb, 0x7e, 0xbd, 0x82, 0x8d, 0x7d, 0xbe, 
  0x2c, 0x54, 0x7c, 0x3e, 0xd6, 0x71, 0x1b, 0x3e, 0x86, 0x03, 0x15, 0x3e, 
  0xf2, 0x84, 0xda, 0xbe, 0x4c, 0xa9, 0x9c, 0xbd, 0x72, 0x51, 0x4a, 0x3e, 
  0x82, 0x91, 0x1e, 0x3e, 0xd1, 0x20, 0xd3, 0xbe, 0xa4, 0x78, 0xdb, 0x3d, 
  0xf8, 0x40, 0x50, 0x3d, 0x7a, 0xb2, 0xf8, 0x3e, 0xc6, 0x0e, 0x4a, 0x3e, 
  0x61, 0x63, 0x77, 0x3c, 0x14, 0x7d, 0xfd, 0x3d, 0xdc, 0x3a, 0xdc, 0x3e, 
  0xfb, 0x38, 0x19, 0x3f, 0x8f, 0xac, 0x6a, 0xbd, 0x08, 0x86, 0xab, 0xbd, 
  0xfb, 0xd2, 0xdb, 0xbe, 0xe0, 0xcd, 0x1d, 0x3e, 0xfd, 0x41, 0xbd, 0xbe, 
  0x67, 0x07, 0x2e, 0xbe, 0xa9, 0xc3, 0xb9, 0xbe, 0x50, 0xef, 0x6d, 0xbd, 
  0x7f, 0xfc, 0x8d, 0x3e, 0x00, 0x70, 0xd7, 0x3b, 0x38, 0xa2, 0x0f, 0x3d, 
  0x1a, 0x47, 0x11, 0xbd, 0x95, 0xc7, 0x9c, 0x3e, 0x60, 0xce, 0x6f, 0xbe, 
  0x0c, 0x3f, 0xdb, 0xbd, 0x47, 0xc2, 0x6d, 0x3e, 0xbc, 0x6e, 0x42, 0xbe, 
  0x52, 0x01, 0x17, 0xbe, 0x68, 0xb2, 0x72, 0xbd, 0x47, 0x00, 0x86, 0xbd, 
  0x6a, 0xeb, 0xaf, 0x3e, 0xc6, 0xed, 0xaa, 0x3e, 0x6e, 0x68, 0x4b, 0x3e, 
  0xd9, 0x2e, 0x9f, 0x3e, 0x50, 0x1d, 0xcf, 0xbc, 0xe2, 0x4a, 0x51, 0x3e, 
  0x43, 0x19, 0xcb, 0xbe, 0xfa, 0xa6, 0x03, 0xbe, 0x4a, 0xb3, 0x6d, 0xbe, 
  0xfa, 0x3c, 0x4a, 0x3e, 0xc6, 0xd3, 0x75, 0xbe, 0x7c, 0xe5, 0x8d, 0xbd, 
  0x3e, 0xcf, 0x7a, 0xbe, 0x90, 0x02, 0xb1, 0xbe, 0xce, 0x5c, 0x9f, 0xbe, 
  0x6d, 0xd1, 0x8e, 0x3e, 0x06, 0x10, 0xf6, 0x3d, 0xd3, 0x86, 0x5f, 0xbf, 
  0x2f, 0x7d, 0x94, 0xbe, 0xd2, 0xf4, 0x4c, 0xbf, 0x2c, 0xa1, 0xf7, 0x3d, 
  0x40, 0xa4, 0x1e, 0xbc, 0x79, 0xe3, 0xc1, 0xbe, 0xfc, 0x8d, 0x2b, 0x3f, 
  0x99, 0xa0, 0xe9, 0x3e, 0xfd, 0xb1, 0x8b, 0x3e, 0xc9, 0xe2, 0x90, 0xbe, 
  0x53, 0x99, 0x42, 0xbf, 0x87, 0x90, 0x6b, 0x3f, 0xc8, 0xd0, 0x94, 0xbd, 
  0x69, 0xfd, 0xbd, 0x3e, 0xe4, 0xfe, 0x72, 0xbf, 0x7c, 0xeb, 0x38, 0xbf, 
  0x44, 0x51, 0x4a, 0x3d, 0x3c, 0x2c, 0xd7, 0x3d, 0xd9, 0xe0, 0x77, 0xbe, 
  0x10, 0xe5, 0x45, 0x3d, 0xfb, 0x1b, 0xad, 0xbe, 0x72, 0x40, 0x95, 0x3e, 
  0x8b, 0xec, 0x8f, 0x3e, 0xfc, 0xbc, 0x93, 0xbc, 0xae, 0x03, 0xc7, 0xbe, 
  0xe7, 0x82, 0x6b, 0xbe, 0x4a, 0x1d, 0x36, 0xbe, 0x07, 0x5e, 0x47, 0x3c, 
  0x02, 0x0f, 0x5c, 0x3e, 0x9b, 0xae, 0x92, 0x3e, 0x0a, 0x4e, 0x54, 0x3e, 
  0x97, 0x5a, 0x8e, 0x3e, 0xca, 0x66, 0x8b, 0x3d, 0xa0, 0xa1, 0x45, 0x3d, 
  0x31, 0xd6, 0x12, 0x3e, 0x60, 0x5d, 0xd0, 0xbd, 0x18, 0x65, 0x60, 0x3d, 
  0x70, 0x6b, 0xb0, 0x3e, 0xf2, 0x52, 0xc6, 0x3d, 0x20, 0xf5, 0xf8, 0xbe, 
  0x08, 0x12, 0x99, 0xbd, 0x67, 0xd2, 0x25, 0xbd, 0x8b, 0x59, 0x55, 0xbd, 
  0x87, 0xe6, 0x17, 0x3f, 0xe0, 0xa5, 0x00, 0x3d, 0xa3, 0xf9, 0x9a, 0x3e, 
  0x13, 0x0b, 0x83, 0x3c, 0x74, 0x8e, 0xa1, 0xbe, 0x90, 0xfd, 0xe6, 0x3e, 
  0xf0, 0xd6, 0x8d, 0x3c, 0x59, 0xdc, 0xeb, 0x3d, 0x6c, 0x20, 0xf0, 0x3d, 
  0x61, 0x73, 0xc9, 0xbe, 0x0f, 0x15, 0xe7, 0x3e, 0x48, 0x75, 0x8c, 0xbe, 
  0xa5, 0xb8, 0x82, 0x3e, 0x20, 0x21, 0x89, 0xbe, 0x47, 0xe8, 0xd0, 0x3e, 
  0x30, 0x2c, 0x17, 0x3e, 0x39, 0xa5, 0x2a, 0xbe, 0xf8, 0x57, 0x18, 0xbe, 
  0xcd, 0xd8, 0x8e, 0x3e, 0xfc, 0xb8, 0xd5, 0x3e, 0x7f, 0x12, 0xab, 0xbe, 
  0x00, 0x00, 0x06, 0x00, 0x08, 0x00, 0x04, 0x00, 0x06, 0x00, 0x00, 0x00, 
  0x04, 0x00, 0x00, 0x00, 0x40, 0x00, 0x00, 0x00, 0x84, 0xc0, 0x8a, 0x3f, 
  0x19, 0x55, 0x74, 0x3e, 0xd0, 0x40, 0xce, 0x3d, 0x16, 0x52, 0xa1, 0x3e, 
  0xf4, 0xca, 0x02, 0xbf, 0x32, 0xd5, 0xaf, 0x3f, 0x6b, 0xfb, 0x10, 0xbf, 
  0xc8, 0xf5, 0x5a, 0x3c, 0xd8, 0x2a, 0x98, 0x3f, 0x9f, 0x08, 0x1b, 0x3f, 
  0x30, 0x90, 0x87, 0x3e, 0xc3, 0x2f, 0x56, 0xbe, 0x7e, 0x28, 0x94, 0xbf, 
  0x8e, 0x8e, 0x2e, 0xbe, 0xb7, 0x03, 0xf1, 0xbe, 0xf5, 0x12, 0xc6, 0x3e, 
  0x38, 0xfb, 0xff, 0xff, 0x3c, 0xfb, 0xff, 0xff, 0x0f, 0x00, 0x00, 0x00, 
  0x4d, 0x4c, 0x49, 0x52, 0x20, 0x43, 0x6f, 0x6e, 0x76, 0x65, 0x72, 0x74, 
  0x65, 0x64, 0x2e, 0x00, 0x01, 0x00, 0x00, 0x00, 0x14, 0x00, 0x00, 0x00, 
  0x00, 0x00, 0x0e, 0x00, 0x18, 0x00, 0x14, 0x00, 0x10, 0x00, 0x0c, 0x00, 
  0x08, 0x00, 0x04, 0x00, 0x0e, 0x00, 0x00, 0x00, 0x14, 0x00, 0x00, 0x00, 
  0x1c, 0x00, 0x00, 0x00, 0xd8, 0x00, 0x00, 0x00, 0xdc, 0x00, 0x00, 0x00, 
  0xe0, 0x00, 0x00, 0x00, 0x04, 0x00, 0x00, 0x00, 0x6d, 0x61, 0x69, 0x6e, 
  0x00, 0x00, 0x00, 0x00, 0x03, 0x00, 0x00, 0x00, 0x80, 0x00, 0x00, 0x00, 
  0x38, 0x00, 0x00, 0x00, 0x04, 0x00, 0x00, 0x00, 0x9a, 0xff, 0xff, 0xff, 
  0x10, 0x00, 0x00, 0x00, 0x00, 0x00, 0x00, 0x08, 0x0c, 0x00, 0x00, 0x00, 
  0x10, 0x00, 0x00, 0x00, 0xb4, 0xfb, 0xff, 0xff, 0x01, 0x00, 0x00, 0x00, 
  0x09, 0x00, 0x00, 0x00, 0x03, 0x00, 0x00, 0x00, 0x08, 0x00, 0x00, 0x00, 
  0x01, 0x00, 0x00, 0x00, 0x03, 0x00, 0x00, 0x00, 0xca, 0xff, 0xff, 0xff, 
  0x10, 0x00, 0x00, 0x00, 0x00, 0x00, 0x00, 0x08, 0x10, 0x00, 0x00, 0x00, 
  0x14, 0x00, 0x00, 0x00, 0xba, 0xff, 0xff, 0xff, 0x00, 0x00, 0x00, 0x01, 
  0x01, 0x00, 0x00, 0x00, 0x08, 0x00, 0x00, 0x00, 0x03, 0x00, 0x00, 0x00, 
  0x07, 0x00, 0x00, 0x00, 0x02, 0x00, 0x00, 0x00, 0x04, 0x00, 0x00, 0x00, 
  0x00, 0x00, 0x0e, 0x00, 0x16, 0x00, 0x00, 0x00, 0x10, 0x00, 0x0c, 0x00, 
  0x0b, 0x00, 0x04, 0x00, 0x0e, 0x00, 0x00, 0x00, 0x18, 0x00, 0x00, 0x00, 
  0x00, 0x00, 0x00, 0x08, 0x18, 0x00, 0x00, 0x00, 0x1c, 0x00, 0x00, 0x00, 
  0x00, 0x00, 0x06, 0x00, 0x08, 0x00, 0x07, 0x00, 0x06, 0x00, 0x00, 0x00, 
  0x00, 0x00, 0x00, 0x01, 0x01, 0x00, 0x00, 0x00, 0x07, 0x00, 0x00, 0x00, 
  0x03, 0x00, 0x00, 0x00, 0x00, 0x00, 0x00, 0x00, 0x06, 0x00, 0x00, 0x00, 
  0x05, 0x00, 0x00, 0x00, 0x01, 0x00, 0x00, 0x00, 0x09, 0x00, 0x00, 0x00, 
  0x01, 0x00, 0x00, 0x00, 0x00, 0x00, 0x00, 0x00, 0x0a, 0x00, 0x00, 0x00, 
  0x74, 0x03, 0x00, 0x00, 0x1c, 0x03, 0x00, 0x00, 0xc4, 0x02, 0x00, 0x00, 
  0x88, 0x02, 0x00, 0x00, 0x4c, 0x02, 0x00, 0x00, 0xf0, 0x01, 0x00, 0x00, 
  0xa0, 0x01, 0x00, 0x00, 0x00, 0x01, 0x00, 0x00, 0x60, 0x00, 0x00, 0x00, 
  0x04, 0x00, 0x00, 0x00, 0xca, 0xfc, 0xff, 0xff, 0x00, 0x00, 0x00, 0x01, 
  0x14, 0x00, 0x00, 0x00, 0x1c, 0x00, 0x00, 0x00, 0x1c, 0x00, 0x00, 0x00, 
  0x0a, 0x00, 0x00, 0x00, 0x34, 0x00, 0x00, 0x00, 0x02, 0x00, 0x00, 0x00, 
  0xff, 0xff, 0xff, 0xff, 0x01, 0x00, 0x00, 0x00, 0xb4, 0xfc, 0xff, 0xff, 
  0x1b, 0x00, 0x00, 0x00, 0x53, 0x74, 0x61, 0x74, 0x65, 0x66, 0x75, 0x6c, 
  0x50, 0x61, 0x72, 0x74, 0x69, 0x74, 0x69, 0x6f, 0x6e, 0x65, 0x64, 0x43, 
  0x61, 0x6c, 0x6c, 0x5f, 0x31, 0x3a, 0x30, 0x00, 0x02, 0x00, 0x00, 0x00, 
  0x01, 0x00, 0x00, 0x00, 0x01, 0x00, 0x00, 0x00, 0x22, 0xfd, 0xff, 0xff, 
  0x00, 0x00, 0x00, 0x01, 0x14, 0x00, 0x00, 0x00, 0x1c, 0x00, 0x00, 0x00, 
  0x1c, 0x00, 0x00, 0x00, 0x09, 0x00, 0x00, 0x00, 0x78, 0x00, 0x00, 0x00, 
  0x02, 0x00, 0x00, 0x00, 0xff, 0xff, 0xff, 0xff, 0x10, 0x00, 0x00, 0x00, 
  0x0c, 0xfd, 0xff, 0xff, 0x5e, 0x00, 0x00, 0x00, 0x73, 0x65, 0x71, 0x75, 
  0x65, 0x6e, 0x74, 0x69, 0x61, 0x6c, 0x5f, 0x31, 0x5f, 0x31, 0x2f, 0x64, 
  0x65, 0x6e, 0x73, 0x65, 0x5f, 0x33, 0x5f, 0x31, 0x2f, 0x4d, 0x61, 0x74, 
  0x4d, 0x75, 0x6c, 0x3b, 0x73, 0x65, 0x71, 0x75, 0x65, 0x6e, 0x74, 0x69, 
  0x61, 0x6c, 0x5f, 0x31, 0x5f, 0x31, 0x2f, 0x64, 0x65, 0x6e, 0x73, 0x65, 
  0x5f, 0x33, 0x5f, 0x31, 0x2f, 0x52, 0x65, 0x6c, 0x75, 0x3b, 0x73, 0x65, 
  0x71, 0x75, 0x65, 0x6e, 0x74, 0x69, 0x61, 0x6c, 0x5f, 0x31, 0x5f, 0x31, 
  0x2f, 0x64, 0x65, 0x6e, 0x73, 0x65, 0x5f, 0x33, 0x5f, 0x31, 0x2f, 0x42, 
  0x69, 0x61, 0x73, 0x41, 0x64, 0x64, 0x00, 0x00, 0x02, 0x00, 0x00, 0x00, 
  0x01, 0x00, 0x00, 0x00, 0x10, 0x00, 0x00, 0x00, 0xbe, 0xfd, 0xff, 0xff, 
  0x00, 0x00, 0x00, 0x01, 0x14, 0x00, 0x00, 0x00, 0x1c, 0x00, 0x00, 0x00, 
  0x1c, 0x00, 0x00, 0x00, 0x08, 0x00, 0x00, 0x00, 0x78, 0x00, 0x00, 0x00, 
  0x02, 0x00, 0x00, 0x00, 0xff, 0xff, 0xff, 0xff, 0x10, 0x00, 0x00, 0x00, 
  0xa8, 0xfd, 0xff, 0xff, 0x5e, 0x00, 0x00, 0x00, 0x73, 0x65, 0x71, 0x75, 
  0x65, 0x6e, 0x74, 0x69, 0x61, 0x6c, 0x5f, 0x31, 0x5f, 0x31, 0x2f, 0x64, 
  0x65, 0x6e, 0x73, 0x65, 0x5f, 0x32, 0x5f, 0x31, 0x2f, 0x4d, 0x61, 0x74, 
  0x4d, 0x75, 0x6c, 0x3b, 0x73, 0x65, 0x71, 0x75, 0x65, 0x6e, 0x74, 0x69, 
  0x61, 0x6c, 0x5f, 0x31, 0x5f, 0x31, 0x2f, 0x64, 0x65, 0x6e, 0x73, 0x65, 
  0x5f, 0x32, 0x5f, 0x31, 0x2f, 0x52, 0x65, 0x6c, 0x75, 0x3b, 0x73, 0x65, 
  0x71, 0x75, 0x65, 0x6e, 0x74, 0x69, 0x61, 0x6c, 0x5f, 0x31, 0x5f, 0x31, 
  0x2f, 0x64, 0x65, 0x6e, 0x73, 0x65, 0x5f, 0x32, 0x5f, 0x31, 0x2f, 0x42, 
  0x69, 0x61, 0x73, 0x41, 0x64, 0x64, 0x00, 0x00, 0x02, 0x00, 0x00, 0x00, 
  0x01, 0x00, 0x00, 0x00, 0x10, 0x00, 0x00, 0x00, 0xae, 0xfe, 0xff, 0xff, 
  0x00, 0x00, 0x00, 0x01, 0x10, 0x00, 0x00, 0x00, 0x10, 0x00, 0x00, 0x00, 
  0x07, 0x00, 0x00, 0x00, 0x2c, 0x00, 0x00, 0x00, 0x34, 0xfe, 0xff, 0xff, 
  0x1f, 0x00, 0x00, 0x00, 0x73, 0x65, 0x71, 0x75, 0x65, 0x6e, 0x74, 0x69, 
  0x61, 0x6c, 0x5f, 0x31, 0x5f, 0x31, 0x2f, 0x64, 0x65, 0x6e, 0x73, 0x65, 
  0x5f, 0x32, 0x5f, 0x31, 0x2f, 0x4d, 0x61, 0x74, 0x4d, 0x75, 0x6c, 0x00, 
  0x02, 0x00, 0x00, 0x00, 0x10, 0x00, 0x00, 0x00, 0x01, 0x00, 0x00, 0x00, 
  0xfa, 0xfe, 0xff, 0xff, 0x00, 0x00, 0x00, 0x01, 0x10, 0x00, 0x00, 0x00, 
  0x10, 0x00, 0x00, 0x00, 0x06, 0x00, 0x00, 0x00, 0x3c, 0x00, 0x00, 0x00, 
  0x80, 0xfe, 0xff, 0xff, 0x2f, 0x00, 0x00, 0x00, 0x73, 0x65, 0x71, 0x75, 
  0x65, 0x6e, 0x74, 0x69, 0x61, 0x6c, 0x5f, 0x31, 0x5f, 0x31, 0x2f, 0x64, 
  0x65, 0x6e, 0x73, 0x65, 0x5f, 0x32, 0x5f, 0x31, 0x2f, 0x42, 0x69, 0x61, 
  0x73, 0x41, 0x64, 0x64, 0x2f, 0x52, 0x65, 0x61, 0x64, 0x56, 0x61, 0x72, 
  0x69, 0x61, 0x62, 0x6c, 0x65, 0x4f, 0x70, 0x00, 0x01, 0x00, 0x00, 0x00, 
  0x10, 0x00, 0x00, 0x00, 0x52, 0xff, 0xff, 0xff, 0x00, 0x00, 0x00, 0x01, 
  0x10, 0x00, 0x00, 0x00, 0x10, 0x00, 0x00, 0x00, 0x05, 0x00, 0x00, 0x00, 
  0x1c, 0x00, 0x00, 0x00, 0xd8, 0xfe, 0xff, 0xff, 0x0f, 0x00, 0x00, 0x00, 
  0x61, 0x72, 0x69, 0x74, 0x68, 0x2e, 0x63, 0x6f, 0x6e, 0x73, 0x74, 0x61, 
  0x6e, 0x74, 0x33, 0x00, 0x01, 0x00, 0x00, 0x00, 0x10, 0x00, 0x00, 0x00, 
  0x8a, 0xff, 0xff, 0xff, 0x00, 0x00, 0x00, 0x01, 0x10, 0x00, 0x00, 0x00, 
  0x10, 0x00, 0x00, 0x00, 0x04, 0x00, 0x00, 0x00, 0x1c, 0x00, 0x00, 0x00, 
  0x10, 0xff, 0xff, 0xff, 0x0f, 0x00, 0x00, 0x00, 0x61, 0x72, 0x69, 0x74, 
  0x68, 0x2e, 0x63, 0x6f, 0x6e, 0x73, 0x74, 0x61, 0x6e, 0x74, 0x32, 0x00, 
  0x01, 0x00, 0x00, 0x00, 0x01, 0x00, 0x00, 0x00, 0xc2, 0xff, 0xff, 0xff, 
  0x00, 0x00, 0x00, 0x01, 0x10, 0x00, 0x00, 0x00, 0x10, 0x00, 0x00, 0x00, 
  0x03, 0x00, 0x00, 0x00, 0x1c, 0x00, 0x00, 0x00, 0x48, 0xff, 0xff, 0xff, 
  0x0f, 0x00, 0x00, 0x00, 0x61, 0x72, 0x69, 0x74, 0x68, 0x2e, 0x63, 0x6f, 
  0x6e, 0x73, 0x74, 0x61, 0x6e, 0x74, 0x31, 0x00, 0x02, 0x00, 0x00, 0x00, 
  0x10, 0x00, 0x00, 0x00, 0x10, 0x00, 0x00, 0x00, 0x00, 0x00, 0x16, 0x00, 
  0x18, 0x00, 0x14, 0x00, 0x00, 0x00, 0x10, 0x00, 0x0c, 0x00, 0x08, 0x00, 
  0x00, 0x00, 0x00, 0x00, 0x00, 0x00, 0x07, 0x00, 0x16, 0x00, 0x00, 0x00, 
  0x00, 0x00, 0x00, 0x01, 0x10, 0x00, 0x00, 0x00, 0x10, 0x00, 0x00, 0x00, 
  0x02, 0x00, 0x00, 0x00, 0x1c, 0x00, 0x00, 0x00, 0x9c, 0xff, 0xff, 0xff, 
  0x0e, 0x00, 0x00, 0x00, 0x61, 0x72, 0x69, 0x74, 0x68, 0x2e, 0x63, 0x6f, 
  0x6e, 0x73, 0x74, 0x61, 0x6e, 0x74, 0x00, 0x00, 0x02, 0x00, 0x00, 0x00, 
  0x01, 0x00, 0x00, 0x00, 0x10, 0x00, 0x00, 0x00, 0x00, 0x00, 0x16, 0x00, 
  0x1c, 0x00, 0x18, 0x00, 0x00, 0x00, 0x14, 0x00, 0x10, 0x00, 0x0c, 0x00, 
  0x00, 0x00, 0x00, 0x00, 0x08, 0x00, 0x07, 0x00, 0x16, 0x00, 0x00, 0x00, 
  0x00, 0x00, 0x00, 0x01, 0x14, 0x00, 0x00, 0x00, 0x20, 0x00, 0x00, 0x00, 
  0x20, 0x00, 0x00, 0x00, 0x01, 0x00, 0x00, 0x00, 0x40, 0x00, 0x00, 0x00, 
  0x02, 0x00, 0x00, 0x00, 0xff, 0xff, 0xff, 0xff, 0x01, 0x00, 0x00, 0x00, 
  0x04, 0x00, 0x04, 0x00, 0x04, 0x00, 0x00, 0x00, 0x20, 0x00, 0x00, 0x00, 
  0x73, 0x65, 0x72, 0x76, 0x69, 0x6e, 0x67, 0x5f, 0x64, 0x65, 0x66, 0x61, 
  0x75, 0x6c, 0x74, 0x5f, 0x6b, 0x65, 0x72, 0x61, 0x73, 0x5f, 0x74, 0x65, 
  0x6e, 0x73, 0x6f, 0x72, 0x5f, 0x33, 0x3a, 0x30, 0x00, 0x00, 0x00, 0x00, 
  0x02, 0x00, 0x00, 0x00, 0x01, 0x00, 0x00, 0x00, 0x01, 0x00, 0x00, 0x00, 
  0x01, 0x00, 0x00, 0x00, 0x10, 0x00, 0x00, 0x00, 0x0c, 0x00, 0x0c, 0x00, 
  0x0b, 0x00, 0x00, 0x00, 0x00, 0x00, 0x04, 0x00, 0x0c, 0x00, 0x00, 0x00, 
  0x09, 0x00, 0x00, 0x00, 0x00, 0x00, 0x00, 0x09, 
};
const unsigned int model_float_tflite_len = 3164;
