const unsigned char model_int8_vela_tflite[] = {
  0x20, 0x00, 0x00, 0x00, 0x54, 0x46, 0x4c, 0x33, 0x00, 0x00, 0x00, 0x00, 
  0x00, 0x00, 0x12, 0x00, 0x1c, 0x00, 0x18, 0x00, 0x14, 0x00, 0x10, 0x00, 
  0x0c, 0x00, 0x08, 0x00, 0x00, 0x00, 0x04, 0x00, 0x12, 0x00, 0x00, 0x00, 
  0x18, 0x00, 0x00, 0x00, 0xe8, 0x00, 0x00, 0x00, 0x18, 0x0b, 0x00, 0x00, 
  0x68, 0x08, 0x00, 0x00, 0x2c, 0x0b, 0x00, 0x00, 0x03, 0x00, 0x00, 0x00, 
  0x05, 0x00, 0x00, 0x00, 0xac, 0x00, 0x00, 0x00, 0x7c, 0x00, 0x00, 0x00, 
  0x54, 0x00, 0x00, 0x00, 0x30, 0x00, 0x00, 0x00, 0x04, 0x00, 0x00, 0x00, 
  0x70, 0xff, 0xff, 0xff, 0x07, 0x00, 0x00, 0x00, 0x04, 0x00, 0x00, 0x00, 
  0x17, 0x00, 0x00, 0x00, 0x4f, 0x66, 0x66, 0x6c, 0x69, 0x6e, 0x65, 0x4d, 
  0x65, 0x6d, 0x6f, 0x72, 0x79, 0x41, 0x6c, 0x6c, 0x6f, 0x63, 0x61, 0x74, 
  0x69, 0x6f, 0x6e, 0x00, 0x98, 0xff, 0xff, 0xff, 0x06, 0x00, 0x00, 0x00, 
  0x04, 0x00, 0x00, 0x00, 0x0c, 0x00, 0x00, 0x00, 0x76, 0x65, 0x6c, 0x61, 
  0x5f, 0x76, 0x65, 0x72, 0x73, 0x69, 0x6f, 0x6e, 0x00, 0x00, 0x00, 0x00, 
  0xb8, 0xff, 0xff, 0xff, 0x05, 0x00, 0x00, 0x00, 0x04, 0x00, 0x00, 0x00, 
  0x13, 0x00, 0x00, 0x00, 0x43, 0x4f, 0x4e, 0x56, 0x45, 0x52, 0x53, 0x49, 
  0x4f, 0x4e, 0x5f, 0x4d, 0x45, 0x54, 0x41, 0x44, 0x41, 0x54, 0x41, 0x00, 
  0xdc, 0xff, 0xff, 0xff, 0x04, 0x00, 0x00, 0x00, 0x04, 0x00, 0x00, 0x00, 
  0x13, 0x00, 0x00, 0x00, 0x6d, 0x69, 0x6e, 0x5f, 0x72, 0x75, 0x6e, 0x74, 
  0x69, 0x6d, 0x65, 0x5f, 0x76, 0x65, 0x72, 0x73, 0x69, 0x6f, 0x6e, 0x00, 
  0x08, 0x00, 0x0c, 0x00, 0x08, 0x00, 0x04, 0x00, 0x08, 0x00, 0x00, 0x00, 
  0x03, 0x00, 0x00, 0x00, 0x04, 0x00, 0x00, 0x00, 0x13, 0x00, 0x00, 0x00, 
  0x6d, 0x69, 0x6e, 0x5f, 0x72, 0x75, 0x6e, 0x74, 0x69, 0x6d, 0x65, 0x5f, 
  0x76, 0x65, 0x72, 0x73, 0x69, 0x6f, 0x6e, 0x00, 0x08, 0x00, 0x00, 0x00, 
  0x80, 0x07, 0x00, 0x00, 0x7c, 0x05, 0x00, 0x00, 0x18, 0x01, 0x00, 0x00, 
  0xf4, 0x00, 0x00, 0x00, 0xd0, 0x00, 0x00, 0x00, 0x5c, 0x00, 0x00, 0x00, 
  0x38, 0x00, 0x00, 0x00, 0x04, 0x00, 0x00, 0x00, 0xa6, 0xfa, 0xff, 0xff, 
  0x04, 0x00, 0x00, 0x00, 0x24, 0x00, 0x00, 0x00, 0x00, 0x00, 0x00, 0x00, 
  0x01, 0x00, 0x00, 0x00, 0x06, 0x00, 0x00, 0x00, 0x10, 0x00, 0x00, 0x00, 
  0xff, 0xff, 0xff, 0xff, 0xff, 0xff, 0xff, 0xff, 0x00, 0x00, 0x00, 0x00, 
  0x00, 0x00, 0x00, 0x00, 0x00, 0x00, 0x00, 0x00, 0xd6, 0xfa, 0xff, 0xff, 
  0x04, 0x00, 0x00, 0x00, 0x05, 0x00, 0x00, 0x00, 0x34, 0x2e, 0x32, 0x2e, 
  0x30, 0x00, 0x00, 0x00, 0x00, 0x00, 0x00, 0x00, 0x00, 0x00, 0x00, 0x00, 
  0x00, 0x00, 0x00, 0x00, 0xf6, 0xfa, 0xff, 0xff, 0x04, 0x00, 0x00, 0x00, 
  0x60, 0x00, 0x00, 0x00, 0x0c, 0x00, 0x00, 0x00, 0x08, 0x00, 0x0e, 0x00, 
  0x08, 0x00, 0x04, 0x00, 0x08, 0x00, 0x00, 0x00, 0x10, 0x00, 0x00, 0x00, 
  0x28, 0x00, 0x00, 0x00, 0x00, 0x00, 0x06, 0x00, 0x08, 0x00, 0x04, 0x00, 
  0x06, 0x00, 0x00, 0x00, 0x04, 0x00, 0x00, 0x00, 0x01, 0x00, 0x00, 0x00, 
  0xeb, 0x03, 0x00, 0x00, 0x0c, 0x00, 0x18, 0x00, 0x14, 0x00, 0x10, 0x00, 
  0x0c, 0x00, 0x04, 0x00, 0x0c, 0x00, 0x00, 0x00, 0x81, 0xb3, 0x15, 0xa4, 
  0xc0, 0x39, 0xf4, 0x0d, 0x02, 0x00, 0x00, 0x00, 0x02, 0x00, 0x00, 0x00, 
  0x04, 0x00, 0x00, 0x00, 0x06, 0x00, 0x00, 0x00, 0x32, 0x2e, 0x31, 0x37, 
  0x2e, 0x30, 0x00, 0x00, 0x00, 0x00, 0x00, 0x00, 0x66, 0xfb, 0xff, 0xff, 
  0x04, 0x00, 0x00, 0x00, 0x10, 0x00, 0x00, 0x00, 0x00, 0x00, 0x00, 0x00, 
  0x00, 0x00, 0x00, 0x00, 0x00, 0x00, 0x00, 0x00, 0x00, 0x00, 0x00, 0x00, 
  0x00, 0x00, 0x00, 0x00, 0x86, 0xfb, 0xff, 0xff, 0x04, 0x00, 0x00, 0x00, 
  0x10, 0x00, 0x00, 0x00, 0x31, 0x2e, 0x31, 0x34, 0x2e, 0x30, 0x00, 0x00, 
  0x00, 0x00, 0x00, 0x00, 0x00, 0x00, 0x00, 0x00, 0x00, 0x00, 0x00, 0x00, 
  0xa6, 0xfb, 0xff, 0xff, 0x04, 0x00, 0x00, 0x00, 0x40, 0x04, 0x00, 0x00, 
  0x00, 0x00, 0x00, 0x00, 0x00, 0x00, 0x00, 0x00, 0x00, 0x00, 0x00, 0x00, 
  0x00, 0x00, 0x00, 0x00, 0x00, 0x00, 0x00, 0x00, 0x00, 0x00, 0x00, 0x00, 
  0x00, 0x00, 0x00, 0x00, 0x00, 0x00, 0x00, 0x00, 0x00, 0x00, 0x00, 0x00, 
  0x00, 0x00, 0x00, 0x00, 0x00, 0x00, 0x00, 0x00, 0x00, 0x00, 0x00, 0x00, 
  0x00, 0x00, 0x00, 0x00, 0x00, 0x00, 0x00, 0x00, 0x00, 0x00, 0x00, 0x00, 
  0x00, 0x00, 0x00, 0x00, 0x00, 0x00, 0x00, 0x00, 0x00, 0x00, 0x00, 0x00, 
  0x00, 0x00, 0x00, 0x00, 0x00, 0x00, 0x00, 0x00, 0x00, 0x00, 0x00, 0x00, 
  0x00, 0x00, 0x00, 0x00, 0x00, 0x00, 0x00, 0x00, 0x00, 0x00, 0x00, 0x00, 
  0x00, 0x00, 0x00, 0x00, 0x00, 0x00, 0x00, 0x00, 0x00, 0x00, 0x00, 0x00, 
  0x00, 0x00, 0x00, 0x00, 0x00, 0x00, 0x00, 0x00, 0x00, 0x00, 0x00, 0x00, 
  0x00, 0x00, 0x00, 0x00, 0x00, 0x00, 0x00, 0x00, 0x00, 0x00, 0x00, 0x00, 
  0x00, 0x00, 0x00, 0x00, 0x00, 0x00, 0x00, 0x00, 0x00, 0x00, 0x00, 0x00, 
  0x00, 0x00, 0x00, 0x00, 0x00, 0x00, 0x00, 0x00, 0x00, 0x00, 0x00, 0x00, 
  0x00, 0x00, 0x00, 0x00, 0x00, 0x00, 0x00, 0x00, 0x00, 0x00, 0x00, 0x00, 
  0x00, 0x00, 0x00, 0x00, 0x00, 0x00, 0x00, 0x00, 0x00, 0x00, 0x00, 0x00, 
  0x00, 0x00, 0x00, 0x00, 0x00, 0x00, 0x00, 0x00, 0x00, 0x00, 0x00, 0x00, 
  0x00, 0x00, 0x00, 0x00, 0x00, 0x00, 0x00, 0x00, 0x00, 0x00, 0x00, 0x00, 
  0x00, 0x00, 0x00, 0x00, 0x00, 0x00, 0x00, 0x00, 0x00, 0x00, 0x00, 0x00, 
  0x00, 0x00, 0x00, 0x00, 0x00, 0x00, 0x00, 0x00, 0x00, 0x00, 0x00, 0x00, 
  0x00, 0x00, 0x00, 0x00, 0x00, 0x00, 0x00, 0x00, 0x00, 0x00, 0x00, 0x00, 
  0x00, 0x00, 0x00, 0x00, 0x00, 0x00, 0x00, 0x00, 0x00, 0x00, 0x00, 0x00, 
  0x00, 0x00, 0x00, 0x00, 0x00, 0x00, 0x00, 0x00, 0x00, 0x00, 0x00, 0x00, 
  0x00, 0x00, 0x00, 0x00, 0x00, 0x00, 0x00, 0x00, 0x00, 0x00, 0x00, 0x00, 
  0x00, 0x00, 0x00, 0x00, 0x00, 0x00, 0x00, 0x00, 0x00, 0x00, 0x00, 0x00, 
  0x00, 0x00, 0x00, 0x00, 0x00, 0x00, 0x00, 0x00, 0x00, 0x00, 0x00, 0x00, 
  0x00, 0x00, 0x00, 0x00, 0x00, 0x00, 0x00, 0x00, 0x00, 0x00, 0x00, 0x00, 
  0x00, 0x00, 0x00, 0x00, 0x00, 0x00, 0x00, 0x00, 0x00, 0x00, 0x00, 0x00, 
  0x00, 0x00, 0x00, 0x00, 0x00, 0x00, 0x00, 0x00, 0x00, 0x00, 0x00, 0x00, 
  0xb5, 0xe6, 0xff, 0xff, 0xff, 0x07, 0xea, 0xae, 0x7e, 0x26, 0x00, 0x00, 
  0x00, 0x00, 0x00, 0x04, 0x30, 0x64, 0x79, 0x28, 0x00, 0x00, 0x00, 0x00, 
  0x00, 0x42, 0xeb, 0x9a, 0x6f, 0x27, 0x6d, 0x01, 0x00, 0x00, 0x00, 0xae, 
  0x5f, 0x92, 0x7f, 0x26, 0xb3, 0x22, 0x00, 0x00, 0x00, 0x7f, 0xb7, 0xff, 
  0x4d, 0x26, 0xad, 0xe8, 0xff, 0xff, 0xff, 0x95, 0xe6, 0xc9, 0x72, 0x27, 
  0x00, 0x00, 0x00, 0x00, 0x00, 0x56, 0x21, 0xb1, 0x67, 0x26, 0x5b, 0xe6, 
  0xff, 0xff, 0xff, 0x43, 0x8d, 0xdb, 0x70, 0x27, 0x00, 0x00, 0x00, 0x00, 
  0x00, 0x92, 0x59, 0x6a, 0x51, 0x26, 0x00, 0x00, 0x00, 0x00, 0x00, 0xa0, 
  0x46, 0xe9, 0x54, 0x28, 0x29, 0xf0, 0xff, 0xff, 0xff, 0x64, 0x46, 0x70, 
  0x58, 0x26, 0x00, 0x00, 0x00, 0x00, 0x00, 0x36, 0x31, 0x1b, 0x6a, 0x26, 
  0x12, 0x31, 0x00, 0x00, 0x00, 0x76, 0x1e, 0xf2, 0x47, 0x26, 0x00, 0x00, 
  0x00, 0x00, 0x00, 0xd9, 0xfb, 0xc3, 0x7c, 0x27, 0xb7, 0xaa, 0xff, 0xff, 
  0xff, 0x28, 0x3a, 0x40, 0x62, 0x27, 0x6f, 0x21, 0x00, 0x00, 0x00, 0xd2, 
  0xf9, 0x0b, 0x4b, 0x26, 0x7b, 0x00, 0xdc, 0x1f, 0xec, 0xff, 0x0f, 0xf0, 
  0x6f, 0xb4, 0xf8, 0xff, 0xff, 0xff, 0xf2, 0x0f, 0xf0, 0xff, 0xff, 0xff, 
  0xff, 0xff, 0x0f, 0xf0, 0xff, 0xff, 0xff, 0xff, 0xff, 0xff, 0xff, 0xff, 
  0x39, 0x1a, 0x00, 0x00, 0x00, 0x79, 0xac, 0x8f, 0x53, 0x25, 0x00, 0x00, 
  0x00, 0x00, 0x00, 0x16, 0x32, 0x44, 0x42, 0x25, 0xe4, 0xfd, 0xff, 0xff, 
  0xff, 0x83, 0xf0, 0x27, 0x4d, 0x25, 0xc2, 0x0c, 0x00, 0x00, 0x00, 0x35, 
  0x40, 0x6c, 0x42, 0x25, 0x79, 0xff, 0xff, 0xff, 0xff, 0x3f, 0x75, 0x77, 
  0x73, 0x26, 0xbb, 0x16, 0x00, 0x00, 0x00, 0x07, 0xbf, 0x03, 0x67, 0x25, 
  0x56, 0x10, 0x00, 0x00, 0x00, 0x44, 0xf2, 0xef, 0x5b, 0x24, 0xbc, 0xfd, 
  0xff, 0xff, 0xff, 0x65, 0xd9, 0x90, 0x41, 0x25, 0x00, 0x00, 0x00, 0x00, 
  0x00, 0x16, 0x90, 0xd1, 0x46, 0x25, 0xa7, 0x07, 0x00, 0x00, 0x00, 0xf7, 
  0xfd, 0x5f, 0x52, 0x24, 0x00, 0x00, 0x00, 0x00, 0x00, 0x0a, 0x6d, 0x5c, 
  0x48, 0x25, 0x1a, 0x14, 0x00, 0x00, 0x00, 0x2a, 0x87, 0x72, 0x76, 0x25, 
  0x00, 0x00, 0x00, 0x00, 0x00, 0x23, 0x1c, 0x05, 0x47, 0x25, 0x98, 0x1f, 
  0x00, 0x00, 0x00, 0x1e, 0x69, 0x71, 0x43, 0x25, 0x40, 0xec, 0xff, 0xff, 
  0xff, 0x74, 0x45, 0xad, 0x4e, 0x24, 0x00, 0x00, 0x00, 0x00, 0x00, 0xeb, 
  0x8e, 0x61, 0x46, 0x25, 0xf8, 0x03, 0xdc, 0x01, 0x0c, 0x00, 0x74, 0x46, 
  0x51, 0x0c, 0xb7, 0xe0, 0x98, 0xba, 0x00, 0xc0, 0xb4, 0x6e, 0x05, 0xcf, 
  0x5f, 0x56, 0x84, 0x0c, 0x00, 0x03, 0x42, 0x41, 0xd8, 0x03, 0x1f, 0x78, 
  0x46, 0x98, 0x19, 0x98, 0x1e, 0xb5, 0x97, 0x99, 0x15, 0x00, 0x40, 0x9e, 
  0xe1, 0x37, 0x44, 0xd9, 0x93, 0x57, 0x07, 0x00, 0x98, 0x8b, 0x5f, 0x90, 
  0xc9, 0xfc, 0x82, 0xe8, 0xb8, 0x32, 0x02, 0xfc, 0x5c, 0x3c, 0x45, 0x1d, 
  0x00, 0xd0, 0x45, 0x34, 0x0d, 0x34, 0xee, 0x0c, 0xd2, 0x01, 0x00, 0x83, 
  0x8b, 0xfc, 0x35, 0xd3, 0x20, 0xa2, 0x6a, 0xaf, 0x90, 0x07, 0x39, 0x42, 
  0x66, 0x03, 0x21, 0x00, 0x50, 0xb9, 0x16, 0xf7, 0xf8, 0x85, 0xa1, 0xc3, 
  0x0f, 0x00, 0x13, 0xf0, 0xe0, 0xbf, 0x2f, 0x27, 0xfc, 0x74, 0xe6, 0x3f, 
  0x03, 0xae, 0x50, 0xfc, 0xc5, 0x3b, 0x00, 0xc0, 0x07, 0x24, 0xa7, 0x71, 
  0x98, 0x45, 0xd6, 0x0a, 0xf0, 0x0b, 0x52, 0x76, 0x38, 0x51, 0x41, 0x52, 
  0x09, 0xff, 0x1f, 0x82, 0x53, 0x2c, 0xc7, 0x5f, 0x7b, 0x95, 0xf8, 0xff, 
  0xff, 0xff, 0xff, 0xff, 0xff, 0xff, 0xff, 0xff, 0xff, 0xff, 0xff, 0xff, 
  0x0f, 0x30, 0x00, 0xc0, 0x01, 0xa0, 0x06, 0xfa, 0x00, 0x07, 0x00, 0xc8, 
  0xf1, 0xf9, 0x41, 0xf4, 0x77, 0xe8, 0x01, 0x01, 0xc0, 0x06, 0x2a, 0x6b, 
  0x2a, 0xa5, 0x4b, 0x03, 0x07, 0x00, 0x30, 0x11, 0x4c, 0xa7, 0x24, 0xf4, 
  0x75, 0xb4, 0x91, 0xc6, 0xf8, 0xd5, 0xec, 0x30, 0x2a, 0xac, 0x01, 0x20, 
  0x43, 0x10, 0x11, 0x1e, 0x00, 0x8c, 0x48, 0x1f, 0x00, 0x52, 0x99, 0x20, 
  0x11, 0xca, 0xec, 0xad, 0xfb, 0xd6, 0xac, 0x26, 0x5e, 0x36, 0xc2, 0x58, 
  0x20, 0x01, 0xe0, 0x03, 0xd4, 0x8f, 0xd3, 0xd9, 0xdb, 0xe8, 0x05, 0x00, 
  0x3a, 0x51, 0xcb, 0x87, 0x78, 0x74, 0x04, 0x15, 0x6c, 0x36, 0x9c, 0x2a, 
  0x46, 0xf8, 0x39, 0x6c, 0x01, 0x40, 0x5d, 0x77, 0x17, 0x02, 0x98, 0x1f, 
  0x70, 0x03, 0x00, 0x12, 0xec, 0x25, 0x33, 0xd5, 0x28, 0x06, 0xeb, 0xb3, 
  0xb6, 0x1f, 0xf9, 0xb7, 0xd9, 0x21, 0xf8, 0x01, 0x60, 0x5e, 0x1d, 0xbd, 
  0x77, 0x04, 0x03, 0x42, 0x00, 0x00, 0x7c, 0x6a, 0xd2, 0xa8, 0x96, 0xf6, 
  0xc5, 0x90, 0xdc, 0x1b, 0xf7, 0xc1, 0x2f, 0xac, 0x07, 0x00, 0x38, 0xff, 
  0xff, 0xa0, 0x00, 0xf8, 0xff, 0xff, 0xff, 0xff, 0xff, 0xff, 0xff, 0xff, 
  0xff, 0xff, 0xff, 0xff, 0xab, 0xf3, 0xff, 0xff, 0xff, 0xfd, 0x1e, 0x27, 
  0x77, 0x26, 0x00, 0x00, 0x00, 0x00, 0x00, 0x00, 0x71, 0x00, 0x5c, 0xf2, 
  0xec, 0x8f, 0x4d, 0x3d, 0x9b, 0x19, 0xf9, 0x18, 0x78, 0xe6, 0xc5, 0x65, 
  0x45, 0xa5, 0xb2, 0x41, 0x00, 0xf0, 0xff, 0x1f, 0xce, 0xa6, 0x72, 0xdf, 
  0x84, 0x05, 0xf0, 0xff, 0x39, 0x00, 0x00, 0x00, 0x03, 0x00, 0x9c, 0xff, 
  0xff, 0xfd, 0xc3, 0xff, 0xff, 0xff, 0xff, 0xff, 0x00, 0x00, 0x00, 0x00, 
  0x00, 0x00, 0x00, 0x00, 0x00, 0x00, 0x00, 0x00, 0x00, 0x00, 0x06, 0x00, 
  0x08, 0x00, 0x04, 0x00, 0x06, 0x00, 0x00, 0x00, 0x04, 0x00, 0x00, 0x00, 
  0xf0, 0x01, 0x00, 0x00, 0x43, 0x4f, 0x50, 0x31, 0x01, 0x00, 0x10, 0x00, 
  0x08, 0x30, 0x00, 0x00, 0x00, 0x00, 0x06, 0x10, 0x05, 0x00, 0x00, 0x00, 
  0x05, 0x00, 0x00, 0x00, 0x05, 0x00, 0x00, 0x00, 0x02, 0x00, 0x74, 0x00, 
  0x0f, 0x01, 0x01, 0x00, 0x00, 0x40, 0x00, 0x00, 0x00, 0x00, 0x00, 0x00, 
  0x01, 0x40, 0x00, 0x00, 0x00, 0x00, 0x00, 0x00, 0x02, 0x40, 0x00, 0x00, 
  0x00, 0x00, 0x00, 0x00, 0x03, 0x40, 0x00, 0x00, 0x00, 0x00, 0x00, 0x00, 
  0x0b, 0x01, 0x00, 0x00, 0x0c, 0x01, 0x00, 0x00, 0x0a, 0x01, 0x00, 0x00, 
  0x04, 0x01, 0x00, 0x00, 0x06, 0x40, 0x00, 0x00, 0x01, 0x00, 0x00, 0x00, 
  0x05, 0x40, 0x00, 0x00, 0x01, 0x00, 0x00, 0x00, 0x04, 0x40, 0x00, 0x00, 
  0x01, 0x00, 0x00, 0x00, 0x09, 0x01, 0x80, 0xff, 0x05, 0x01, 0x01, 0x00, 
  0x07, 0x01, 0x00, 0x00, 0x00, 0x01, 0x00, 0x00, 0x01, 0x01, 0x00, 0x00, 
  0x03, 0x01, 0x00, 0x00, 0x02, 0x01, 0x00, 0x00, 0x1f, 0x01, 0x01, 0x00, 
  0x10, 0x40, 0x00, 0x00, 0x10, 0x00, 0x00, 0x00, 0x11, 0x40, 0x00, 0x00, 
  0x00, 0x00, 0x00, 0x00, 0x12, 0x40, 0x00, 0x00, 0x00, 0x00, 0x00, 0x00, 
  0x13, 0x40, 0x00, 0x00, 0x00, 0x00, 0x00, 0x00, 0x1b, 0x01, 0x00, 0x00, 
  0x1c, 0x01, 0x00, 0x00, 0x1a, 0x01, 0x00, 0x00, 0x12, 0x01, 0x00, 0x00, 
  0x11, 0x01, 0x00, 0x00, 0x13, 0x01, 0x0f, 0x00, 0x16, 0x40, 0x00, 0x00, 
  0x10, 0x00, 0x00, 0x00, 0x15, 0x40, 0x00, 0x00, 0x10, 0x00, 0x00, 0x00, 
  0x14, 0x40, 0x00, 0x00, 0x10, 0x00, 0x00, 0x00, 0x18, 0x01, 0x80, 0xff, 
  0x14, 0x01, 0x41, 0x00, 0x21, 0x01, 0x00, 0x00, 0x20, 0x01, 0x00, 0x00, 
  0x22, 0x01, 0x00, 0x00, 0x28, 0x01, 0x00, 0x00, 0x20, 0x40, 0x00, 0x00, 
  0xf0, 0x01, 0x00, 0x00, 0x21, 0x40, 0x00, 0x00, 0x20, 0x00, 0x00, 0x00, 
  0x29, 0x01, 0x00, 0x00, 0x22, 0x40, 0x00, 0x00, 0x50, 0x01, 0x00, 0x00, 
  0x23, 0x40, 0x00, 0x00, 0xa0, 0x00, 0x00, 0x00, 0x25, 0x01, 0x00, 0x00, 
  0x26, 0x01, 0x80, 0xff, 0x27, 0x01, 0x7f, 0x00, 0x16, 0x01, 0x01, 0x00, 
  0x15, 0x01, 0x01, 0x00, 0x17, 0x01, 0x0f, 0x00, 0x0d, 0x01, 0x0a, 0x00, 
  0x2d, 0x01, 0x1e, 0x00, 0x24, 0x01, 0x00, 0x00, 0x2f, 0x01, 0x00, 0x00, 
  0x02, 0x00, 0x00, 0x00, 0x00, 0x40, 0x00, 0x00, 0x10, 0x00, 0x00, 0x00, 
  0x04, 0x01, 0x0f, 0x00, 0x06, 0x40, 0x00, 0x00, 0x10, 0x00, 0x00, 0x00, 
  0x05, 0x40, 0x00, 0x00, 0x10, 0x00, 0x00, 0x00, 0x04, 0x40, 0x00, 0x00, 
  0x10, 0x00, 0x00, 0x00, 0x05, 0x01, 0x41, 0x00, 0x10, 0x40, 0x00, 0x00, 
  0x00, 0x00, 0x00, 0x00, 0x20, 0x40, 0x00, 0x00, 0xb0, 0x02, 0x00, 0x00, 
  0x21, 0x40, 0x00, 0x00, 0x50, 0x01, 0x00, 0x00, 0x22, 0x40, 0x00, 0x00, 
  0x10, 0x02, 0x00, 0x00, 0x02, 0x00, 0x00, 0x00, 0x00, 0x40, 0x00, 0x00, 
  0x00, 0x00, 0x00, 0x00, 0x10, 0x40, 0x00, 0x00, 0x10, 0x00, 0x00, 0x00, 
  0x13, 0x01, 0x00, 0x00, 0x16, 0x40, 0x00, 0x00, 0x01, 0x00, 0x00, 0x00, 
  0x15, 0x40, 0x00, 0x00, 0x01, 0x00, 0x00, 0x00, 0x14, 0x40, 0x00, 0x00, 
  0x01, 0x00, 0x00, 0x00, 0x18, 0x01, 0xff, 0xff, 0x14, 0x01, 0x01, 0x00, 
  0x20, 0x40, 0x00, 0x00, 0x10, 0x04, 0x00, 0x00, 0x21, 0x40, 0x00, 0x00, 
  0x30, 0x00, 0x00, 0x00, 0x22, 0x40, 0x00, 0x00, 0x00, 0x04, 0x00, 0x00, 
  0x23, 0x40, 0x00, 0x00, 0x10, 0x00, 0x00, 0x00, 0x17, 0x01, 0x07, 0x00, 
  0x02, 0x00, 0x00, 0x00, 0x00, 0x00, 0xff, 0xff, 0x04, 0x00, 0x04, 0x00, 
  0x04, 0x00, 0x00, 0x00, 0x01, 0x00, 0x00, 0x00, 0x14, 0x00, 0x00, 0x00, 
  0x00, 0x00, 0x0e, 0x00, 0x18, 0x00, 0x14, 0x00, 0x10, 0x00, 0x0c, 0x00, 
  0x08, 0x00, 0x04, 0x00, 0x0e, 0x00, 0x00, 0x00, 0x84, 0x02, 0x00, 0x00, 
  0x10, 0x00, 0x00, 0x00, 0x74, 0x00, 0x00, 0x00, 0x78, 0x00, 0x00, 0x00, 
  0x7c, 0x00, 0x00, 0x00, 0x01, 0x00, 0x00, 0x00, 0x1c, 0x00, 0x00, 0x00, 
  0x00, 0x00, 0x16, 0x00, 0x18, 0x00, 0x00, 0x00, 0x14, 0x00, 0x10, 0x00, 
  0x00, 0x00, 0x00, 0x00, 0x08, 0x00, 0x00, 0x00, 0x04, 0x00, 0x0c, 0x00, 
  0x16, 0x00, 0x00, 0x00, 0x14, 0x00, 0x00, 0x00, 0x14, 0x00, 0x00, 0x00, 
  0x18, 0x00, 0x00, 0x00, 0x18, 0x00, 0x00, 0x00, 0x1c, 0x00, 0x00, 0x00, 
  0x00, 0x00, 0x00, 0x00, 0x03, 0x00, 0x00, 0x00, 0x01, 0x04, 0x01, 0x00, 
  0x00, 0x00, 0x00, 0x00, 0x01, 0x00, 0x00, 0x00, 0x00, 0x00, 0x00, 0x00, 
  0x05, 0x00, 0x00, 0x00, 0x01, 0x00, 0x00, 0x00, 0x02, 0x00, 0x00, 0x00, 
  0x03, 0x00, 0x00, 0x00, 0x04, 0x00, 0x00, 0x00, 0x05, 0x00, 0x00, 0x00, 
  0x01, 0x00, 0x00, 0x00, 0x00, 0x00, 0x00, 0x00, 0x01, 0x00, 0x00, 0x00, 
  0x05, 0x00, 0x00, 0x00, 0x06, 0x00, 0x00, 0x00, 0x84, 0x01, 0x00, 0x00, 
  0x34, 0x01, 0x00, 0x00, 0xf0, 0x00, 0x00, 0x00, 0xb8, 0x00, 0x00, 0x00, 
  0x70, 0x00, 0x00, 0x00, 0x04, 0x00, 0x00, 0x00, 0xa2, 0xfe, 0xff, 0xff, 
  0x10, 0x00, 0x00, 0x00, 0x2c, 0x00, 0x00, 0x00, 0x00, 0x00, 0x00, 0x09, 
  0x4c, 0x00, 0x00, 0x00, 0x94, 0xfe, 0xff, 0xff, 0x08, 0x00, 0x00, 0x00, 
  0x10, 0x00, 0x00, 0x00, 0x01, 0x00, 0x00, 0x00, 0x80, 0xff, 0xff, 0xff, 
  0xff, 0xff, 0xff, 0xff, 0x01, 0x00, 0x00, 0x00, 0x5d, 0x4f, 0xc9, 0x3c, 
  0x20, 0x00, 0x00, 0x00, 0x73, 0x65, 0x72, 0x76, 0x69, 0x6e, 0x67, 0x5f, 
  0x64, 0x65, 0x66, 0x61, 0x75, 0x6c, 0x74, 0x5f, 0x6b, 0x65, 0x72, 0x61, 
  0x73, 0x5f, 0x74, 0x65, 0x6e, 0x73, 0x6f, 0x72, 0x5f, 0x33, 0x3a, 0x30, 
  0x00, 0x00, 0x00, 0x00, 0x02, 0x00, 0x00, 0x00, 0x01, 0x00, 0x00, 0x00, 
  0x01, 0x00, 0x00, 0x00, 0xc8, 0xff, 0xff, 0xff, 0x0c, 0x00, 0x00, 0x00, 
  0x00, 0x00, 0x00, 0x03, 0x24, 0x00, 0x00, 0x00, 0x19, 0x00, 0x00, 0x00, 
  0x6d, 0x61, 0x69, 0x6e, 0x5f, 0x73, 0x70, 0x6c, 0x69, 0x74, 0x5f, 0x31, 
  0x5f, 0x73, 0x63, 0x72, 0x61, 0x74, 0x63, 0x68, 0x5f, 0x66, 0x61, 0x73, 
  0x74, 0x00, 0x00, 0x00, 0x01, 0x00, 0x00, 0x00, 0x20, 0x00, 0x00, 0x00, 
  0x0c, 0x00, 0x10, 0x00, 0x0c, 0x00, 0x0b, 0x00, 0x00, 0x00, 0x04, 0x00, 
  0x0c, 0x00, 0x00, 0x00, 0x0c, 0x00, 0x00, 0x00, 0x00, 0x00, 0x00, 0x03, 
  0x20, 0x00, 0x00, 0x00, 0x14, 0x00, 0x00, 0x00, 0x6d, 0x61, 0x69, 0x6e, 
  0x5f, 0x73, 0x70, 0x6c, 0x69, 0x74, 0x5f, 0x31, 0x5f, 0x73, 0x63, 0x72, 
  0x61, 0x74, 0x63, 0x68, 0x00, 0x00, 0x00, 0x00, 0x01, 0x00, 0x00, 0x00, 
  0x20, 0x00, 0x00, 0x00, 0xcc, 0xff, 0xff, 0xff, 0x10, 0x00, 0x00, 0x00, 
  0x02, 0x00, 0x00, 0x00, 0x00, 0x00, 0x00, 0x03, 0x1c, 0x00, 0x00, 0x00, 
  0x12, 0x00, 0x00, 0x00, 0x6d, 0x61, 0x69, 0x6e, 0x5f, 0x73, 0x70, 0x6c, 
  0x69, 0x74, 0x5f, 0x31, 0x5f, 0x66, 0x6c, 0x61, 0x73, 0x68, 0x00, 0x00, 
  0x01, 0x00, 0x00, 0x00, 0x40, 0x04, 0x00, 0x00, 0x0c, 0x00, 0x14, 0x00, 
  0x10, 0x00, 0x0f, 0x00, 0x08, 0x00, 0x04, 0x00, 0x0c, 0x00, 0x00, 0x00, 
  0x10, 0x00, 0x00, 0x00, 0x01, 0x00, 0x00, 0x00, 0x00, 0x00, 0x00, 0x03, 
  0x24, 0x00, 0x00, 0x00, 0x1b, 0x00, 0x00, 0x00, 0x6d, 0x61, 0x69, 0x6e, 
  0x5f, 0x73, 0x70, 0x6c, 0x69, 0x74, 0x5f, 0x31, 0x5f, 0x63, 0x6f, 0x6d, 
  0x6d, 0x61, 0x6e, 0x64, 0x5f, 0x73, 0x74, 0x72, 0x65, 0x61, 0x6d, 0x00, 
  0x01, 0x00, 0x00, 0x00, 0xf0, 0x01, 0x00, 0x00, 0x00, 0x00, 0x0e, 0x00, 
  0x14, 0x00, 0x10, 0x00, 0x0f, 0x00, 0x00, 0x00, 0x08, 0x00, 0x04, 0x00, 
  0x0e, 0x00, 0x00, 0x00, 0x1c, 0x00, 0x00, 0x00, 0x3c, 0x00, 0x00, 0x00, 
  0x00, 0x00, 0x00, 0x09, 0x54, 0x00, 0x00, 0x00, 0x0c, 0x00, 0x0c, 0x00, 
  0x00, 0x00, 0x00, 0x00, 0x08, 0x00, 0x04, 0x00, 0x0c, 0x00, 0x00, 0x00, 
  0x08, 0x00, 0x00, 0x00, 0x14, 0x00, 0x00, 0x00, 0x01, 0x00, 0x00, 0x00, 
  0xff, 0xff, 0xff, 0xff, 0xff, 0xff, 0xff, 0xff, 0x00, 0x00, 0x00, 0x00, 
  0x01, 0x00, 0x00, 0x00, 0x3d, 0x4d, 0x07, 0x3c, 0x1b, 0x00, 0x00, 0x00, 
  0x53, 0x74, 0x61, 0x74, 0x65, 0x66, 0x75, 0x6c, 0x50, 0x61, 0x72, 0x74, 
  0x69, 0x74, 0x69, 0x6f, 0x6e, 0x65, 0x64, 0x43, 0x61, 0x6c, 0x6c, 0x5f, 
  0x31, 0x3a, 0x30, 0x00, 0x02, 0x00, 0x00, 0x00, 0x01, 0x00, 0x00, 0x00, 
  0x01, 0x00, 0x00, 0x00, 0x04, 0x00, 0x00, 0x00, 0x6d, 0x61, 0x69, 0x6e, 
  0x00, 0x00, 0x00, 0x00, 0x14, 0x00, 0x00, 0x00, 0x56, 0x65, 0x6c, 0x61, 
  0x20, 0x34, 0x2e, 0x32, 0x2e, 0x30, 0x20, 0x4f, 0x70, 0x74, 0x69, 0x6d, 
  0x69, 0x73, 0x65, 0x64, 0x00, 0x00, 0x00, 0x00, 0x01, 0x00, 0x00, 0x00, 
  0x10, 0x00, 0x00, 0x00, 0x0c, 0x00, 0x10, 0x00, 0x0f, 0x00, 0x04, 0x00, 
  0x00, 0x00, 0x08, 0x00, 0x0c, 0x00, 0x00, 0x00, 0x0c, 0x00, 0x00, 0x00, 
  0x20, 0x00, 0x00, 0x00, 0x00, 0x00, 0x00, 0x20, 0x07, 0x00, 0x00, 0x00, 
  0x65, 0x74, 0x68, 0x6f, 0x73, 0x2d, 0x75, 0x00, 
};
const unsigned int model_int8_vela_tflite_len = 2960;
